node {
  name: "normalize_element/component_0"
  op: "Const"
  device: "/device:CPU:0"
  attr {
    key: "_output_shapes"
    value {
      list {
        shape {
          dim {
            size: 1
          }
        }
      }
    }
  }
  attr {
    key: "dtype"
    value {
      type: DT_STRING
    }
  }
  attr {
    key: "value"
    value {
      tensor {
        dtype: DT_STRING
        tensor_shape {
          dim {
            size: 1
          }
        }
        string_val: "images/Page3 2.png"
      }
    }
  }
}
node {
  name: "TensorSliceDataset"
  op: "TensorSliceDataset"
  input: "normalize_element/component_0"
  device: "/device:CPU:0"
  attr {
    key: "Toutput_types"
    value {
      list {
        type: DT_STRING
      }
    }
  }
  attr {
    key: "_output_shapes"
    value {
      list {
        shape {
        }
      }
    }
  }
  attr {
    key: "output_shapes"
    value {
      list {
        shape {
        }
      }
    }
  }
}
node {
  name: "buffer_size"
  op: "Const"
  device: "/device:CPU:0"
  attr {
    key: "_output_shapes"
    value {
      list {
        shape {
        }
      }
    }
  }
  attr {
    key: "dtype"
    value {
      type: DT_INT64
    }
  }
  attr {
    key: "value"
    value {
      tensor {
        dtype: DT_INT64
        tensor_shape {
        }
        int64_val: 1
      }
    }
  }
}
node {
  name: "seed"
  op: "Const"
  device: "/device:CPU:0"
  attr {
    key: "_output_shapes"
    value {
      list {
        shape {
        }
      }
    }
  }
  attr {
    key: "dtype"
    value {
      type: DT_INT64
    }
  }
  attr {
    key: "value"
    value {
      tensor {
        dtype: DT_INT64
        tensor_shape {
        }
        int64_val: 0
      }
    }
  }
}
node {
  name: "seed2"
  op: "Const"
  device: "/device:CPU:0"
  attr {
    key: "_output_shapes"
    value {
      list {
        shape {
        }
      }
    }
  }
  attr {
    key: "dtype"
    value {
      type: DT_INT64
    }
  }
  attr {
    key: "value"
    value {
      tensor {
        dtype: DT_INT64
        tensor_shape {
        }
        int64_val: 0
      }
    }
  }
}
node {
  name: "ShuffleDataset"
  op: "ShuffleDataset"
  input: "TensorSliceDataset"
  input: "buffer_size"
  input: "seed"
  input: "seed2"
  device: "/device:CPU:0"
  attr {
    key: "_output_shapes"
    value {
      list {
        shape {
        }
      }
    }
  }
  attr {
    key: "output_shapes"
    value {
      list {
        shape {
        }
      }
    }
  }
  attr {
    key: "output_types"
    value {
      list {
        type: DT_STRING
      }
    }
  }
  attr {
    key: "reshuffle_each_iteration"
    value {
      b: true
    }
  }
}
node {
  name: "count"
  op: "Const"
  device: "/device:CPU:0"
  attr {
    key: "_output_shapes"
    value {
      list {
        shape {
        }
      }
    }
  }
  attr {
    key: "dtype"
    value {
      type: DT_INT64
    }
  }
  attr {
    key: "value"
    value {
      tensor {
        dtype: DT_INT64
        tensor_shape {
        }
        int64_val: -1
      }
    }
  }
}
node {
  name: "RepeatDataset"
  op: "RepeatDataset"
  input: "ShuffleDataset"
  input: "count"
  device: "/device:CPU:0"
  attr {
    key: "_output_shapes"
    value {
      list {
        shape {
        }
      }
    }
  }
  attr {
    key: "output_shapes"
    value {
      list {
        shape {
        }
      }
    }
  }
  attr {
    key: "output_types"
    value {
      list {
        type: DT_STRING
      }
    }
  }
}
node {
  name: "num_parallel_calls"
  op: "Const"
  device: "/device:CPU:0"
  attr {
    key: "_output_shapes"
    value {
      list {
        shape {
        }
      }
    }
  }
  attr {
    key: "dtype"
    value {
      type: DT_INT32
    }
  }
  attr {
    key: "value"
    value {
      tensor {
        dtype: DT_INT32
        tensor_shape {
        }
        int_val: 16
      }
    }
  }
}
node {
  name: "ParallelMapDataset"
  op: "ParallelMapDataset"
  input: "RepeatDataset"
  input: "num_parallel_calls"
  device: "/device:CPU:0"
  attr {
    key: "Targuments"
    value {
      list {
      }
    }
  }
  attr {
    key: "_output_shapes"
    value {
      list {
        shape {
        }
      }
    }
  }
  attr {
    key: "f"
    value {
      func {
        name: "__inference_Dataset_map_read_png_99"
      }
    }
  }
  attr {
    key: "output_shapes"
    value {
      list {
        shape {
          unknown_rank: true
        }
      }
    }
  }
  attr {
    key: "output_types"
    value {
      list {
        type: DT_FLOAT
      }
    }
  }
  attr {
    key: "preserve_cardinality"
    value {
      b: false
    }
  }
  attr {
    key: "sloppy"
    value {
      b: false
    }
  }
  attr {
    key: "use_inter_op_parallelism"
    value {
      b: true
    }
  }
}
node {
  name: "MapDataset"
  op: "MapDataset"
  input: "ParallelMapDataset"
  device: "/device:CPU:0"
  attr {
    key: "Targuments"
    value {
      list {
      }
    }
  }
  attr {
    key: "_output_shapes"
    value {
      list {
        shape {
        }
      }
    }
  }
  attr {
    key: "f"
    value {
      func {
        name: "__inference_Dataset_map_<lambda>_122"
      }
    }
  }
  attr {
    key: "output_shapes"
    value {
      list {
        shape {
          dim {
            size: 256
          }
          dim {
            size: 256
          }
          dim {
            size: 3
          }
        }
      }
    }
  }
  attr {
    key: "output_types"
    value {
      list {
        type: DT_FLOAT
      }
    }
  }
  attr {
    key: "preserve_cardinality"
    value {
      b: false
    }
  }
  attr {
    key: "use_inter_op_parallelism"
    value {
      b: true
    }
  }
}
node {
  name: "batch_size"
  op: "Const"
  device: "/device:CPU:0"
  attr {
    key: "_output_shapes"
    value {
      list {
        shape {
        }
      }
    }
  }
  attr {
    key: "dtype"
    value {
      type: DT_INT64
    }
  }
  attr {
    key: "value"
    value {
      tensor {
        dtype: DT_INT64
        tensor_shape {
        }
        int64_val: 8
      }
    }
  }
}
node {
  name: "drop_remainder"
  op: "Const"
  device: "/device:CPU:0"
  attr {
    key: "_output_shapes"
    value {
      list {
        shape {
        }
      }
    }
  }
  attr {
    key: "dtype"
    value {
      type: DT_BOOL
    }
  }
  attr {
    key: "value"
    value {
      tensor {
        dtype: DT_BOOL
        tensor_shape {
        }
        bool_val: false
      }
    }
  }
}
node {
  name: "BatchDatasetV2"
  op: "BatchDatasetV2"
  input: "MapDataset"
  input: "batch_size"
  input: "drop_remainder"
  device: "/device:CPU:0"
  attr {
    key: "_output_shapes"
    value {
      list {
        shape {
        }
      }
    }
  }
  attr {
    key: "output_shapes"
    value {
      list {
        shape {
          dim {
            size: -1
          }
          dim {
            size: 256
          }
          dim {
            size: 256
          }
          dim {
            size: 3
          }
        }
      }
    }
  }
  attr {
    key: "output_types"
    value {
      list {
        type: DT_FLOAT
      }
    }
  }
  attr {
    key: "parallel_copy"
    value {
      b: false
    }
  }
}
node {
  name: "buffer_size_1"
  op: "Const"
  device: "/device:CPU:0"
  attr {
    key: "_output_shapes"
    value {
      list {
        shape {
        }
      }
    }
  }
  attr {
    key: "dtype"
    value {
      type: DT_INT64
    }
  }
  attr {
    key: "value"
    value {
      tensor {
        dtype: DT_INT64
        tensor_shape {
        }
        int64_val: 32
      }
    }
  }
}
node {
  name: "PrefetchDataset"
  op: "PrefetchDataset"
  input: "BatchDatasetV2"
  input: "buffer_size_1"
  device: "/device:CPU:0"
  attr {
    key: "_output_shapes"
    value {
      list {
        shape {
        }
      }
    }
  }
  attr {
    key: "legacy_autotune"
    value {
      b: true
    }
  }
  attr {
    key: "output_shapes"
    value {
      list {
        shape {
          dim {
            size: -1
          }
          dim {
            size: 256
          }
          dim {
            size: 256
          }
          dim {
            size: 3
          }
        }
      }
    }
  }
  attr {
    key: "output_types"
    value {
      list {
        type: DT_FLOAT
      }
    }
  }
  attr {
    key: "slack_period"
    value {
      i: 0
    }
  }
}
node {
  name: "OneShotIterator"
  op: "OneShotIterator"
  attr {
    key: "_output_shapes"
    value {
      list {
        shape {
        }
      }
    }
  }
  attr {
    key: "container"
    value {
      s: ""
    }
  }
  attr {
    key: "dataset_factory"
    value {
      func {
        name: "_make_dataset_EmadYl1Fqfs"
      }
    }
  }
  attr {
    key: "output_shapes"
    value {
      list {
        shape {
          dim {
            size: -1
          }
          dim {
            size: 256
          }
          dim {
            size: 256
          }
          dim {
            size: 3
          }
        }
      }
    }
  }
  attr {
    key: "output_types"
    value {
      list {
        type: DT_FLOAT
      }
    }
  }
  attr {
    key: "shared_name"
    value {
      s: ""
    }
  }
}
node {
  name: "IteratorToStringHandle"
  op: "IteratorToStringHandle"
  input: "OneShotIterator"
  attr {
    key: "_output_shapes"
    value {
      list {
        shape {
        }
      }
    }
  }
}
node {
  name: "IteratorGetNext"
  op: "IteratorGetNext"
  input: "OneShotIterator"
  attr {
    key: "_output_shapes"
    value {
      list {
        shape {
          dim {
            size: -1
          }
          dim {
            size: 256
          }
          dim {
            size: 256
          }
          dim {
            size: 3
          }
        }
      }
    }
  }
  attr {
    key: "output_shapes"
    value {
      list {
        shape {
          dim {
            size: -1
          }
          dim {
            size: 256
          }
          dim {
            size: 256
          }
          dim {
            size: 3
          }
        }
      }
    }
  }
  attr {
    key: "output_types"
    value {
      list {
        type: DT_FLOAT
      }
    }
  }
}
node {
  name: "analysis_transform/layer_0/kernel_rdft/Initializer/truncated_normal/shape"
  op: "Const"
  attr {
    key: "_class"
    value {
      list {
        s: "loc:@analysis_transform/layer_0/kernel_rdft"
      }
    }
  }
  attr {
    key: "_output_shapes"
    value {
      list {
        shape {
          dim {
            size: 4
          }
        }
      }
    }
  }
  attr {
    key: "dtype"
    value {
      type: DT_INT32
    }
  }
  attr {
    key: "value"
    value {
      tensor {
        dtype: DT_INT32
        tensor_shape {
          dim {
            size: 4
          }
        }
        tensor_content: "\t\000\000\000\t\000\000\000\003\000\000\000\200\000\000\000"
      }
    }
  }
}
node {
  name: "analysis_transform/layer_0/kernel_rdft/Initializer/truncated_normal/mean"
  op: "Const"
  attr {
    key: "_class"
    value {
      list {
        s: "loc:@analysis_transform/layer_0/kernel_rdft"
      }
    }
  }
  attr {
    key: "_output_shapes"
    value {
      list {
        shape {
        }
      }
    }
  }
  attr {
    key: "dtype"
    value {
      type: DT_FLOAT
    }
  }
  attr {
    key: "value"
    value {
      tensor {
        dtype: DT_FLOAT
        tensor_shape {
        }
        float_val: 0.0
      }
    }
  }
}
node {
  name: "analysis_transform/layer_0/kernel_rdft/Initializer/truncated_normal/stddev"
  op: "Const"
  attr {
    key: "_class"
    value {
      list {
        s: "loc:@analysis_transform/layer_0/kernel_rdft"
      }
    }
  }
  attr {
    key: "_output_shapes"
    value {
      list {
        shape {
        }
      }
    }
  }
  attr {
    key: "dtype"
    value {
      type: DT_FLOAT
    }
  }
  attr {
    key: "value"
    value {
      tensor {
        dtype: DT_FLOAT
        tensor_shape {
        }
        float_val: 0.072928786277771
      }
    }
  }
}
node {
  name: "analysis_transform/layer_0/kernel_rdft/Initializer/truncated_normal/TruncatedNormal"
  op: "TruncatedNormal"
  input: "analysis_transform/layer_0/kernel_rdft/Initializer/truncated_normal/shape"
  attr {
    key: "T"
    value {
      type: DT_INT32
    }
  }
  attr {
    key: "_class"
    value {
      list {
        s: "loc:@analysis_transform/layer_0/kernel_rdft"
      }
    }
  }
  attr {
    key: "_output_shapes"
    value {
      list {
        shape {
          dim {
            size: 9
          }
          dim {
            size: 9
          }
          dim {
            size: 3
          }
          dim {
            size: 128
          }
        }
      }
    }
  }
  attr {
    key: "dtype"
    value {
      type: DT_FLOAT
    }
  }
  attr {
    key: "seed"
    value {
      i: 0
    }
  }
  attr {
    key: "seed2"
    value {
      i: 0
    }
  }
}
node {
  name: "analysis_transform/layer_0/kernel_rdft/Initializer/truncated_normal/mul"
  op: "Mul"
  input: "analysis_transform/layer_0/kernel_rdft/Initializer/truncated_normal/TruncatedNormal"
  input: "analysis_transform/layer_0/kernel_rdft/Initializer/truncated_normal/stddev"
  attr {
    key: "T"
    value {
      type: DT_FLOAT
    }
  }
  attr {
    key: "_class"
    value {
      list {
        s: "loc:@analysis_transform/layer_0/kernel_rdft"
      }
    }
  }
  attr {
    key: "_output_shapes"
    value {
      list {
        shape {
          dim {
            size: 9
          }
          dim {
            size: 9
          }
          dim {
            size: 3
          }
          dim {
            size: 128
          }
        }
      }
    }
  }
}
node {
  name: "analysis_transform/layer_0/kernel_rdft/Initializer/truncated_normal"
  op: "Add"
  input: "analysis_transform/layer_0/kernel_rdft/Initializer/truncated_normal/mul"
  input: "analysis_transform/layer_0/kernel_rdft/Initializer/truncated_normal/mean"
  attr {
    key: "T"
    value {
      type: DT_FLOAT
    }
  }
  attr {
    key: "_class"
    value {
      list {
        s: "loc:@analysis_transform/layer_0/kernel_rdft"
      }
    }
  }
  attr {
    key: "_output_shapes"
    value {
      list {
        shape {
          dim {
            size: 9
          }
          dim {
            size: 9
          }
          dim {
            size: 3
          }
          dim {
            size: 128
          }
        }
      }
    }
  }
}
node {
  name: "analysis_transform/layer_0/kernel_rdft/Initializer/Reshape/shape"
  op: "Const"
  attr {
    key: "_class"
    value {
      list {
        s: "loc:@analysis_transform/layer_0/kernel_rdft"
      }
    }
  }
  attr {
    key: "_output_shapes"
    value {
      list {
        shape {
          dim {
            size: 2
          }
        }
      }
    }
  }
  attr {
    key: "dtype"
    value {
      type: DT_INT32
    }
  }
  attr {
    key: "value"
    value {
      tensor {
        dtype: DT_INT32
        tensor_shape {
          dim {
            size: 2
          }
        }
        tensor_content: "\377\377\377\377\200\001\000\000"
      }
    }
  }
}
node {
  name: "analysis_transform/layer_0/kernel_rdft/Initializer/Reshape"
  op: "Reshape"
  input: "analysis_transform/layer_0/kernel_rdft/Initializer/truncated_normal"
  input: "analysis_transform/layer_0/kernel_rdft/Initializer/Reshape/shape"
  attr {
    key: "T"
    value {
      type: DT_FLOAT
    }
  }
  attr {
    key: "Tshape"
    value {
      type: DT_INT32
    }
  }
  attr {
    key: "_class"
    value {
      list {
        s: "loc:@analysis_transform/layer_0/kernel_rdft"
      }
    }
  }
  attr {
    key: "_output_shapes"
    value {
      list {
        shape {
          dim {
            size: 81
          }
          dim {
            size: 384
          }
        }
      }
    }
  }
}
node {
  name: "analysis_transform/layer_0/kernel_rdft/Initializer/irdft_9x9"
  op: "Const"
  attr {
    key: "_class"
    value {
      list {
        s: "loc:@analysis_transform/layer_0/kernel_rdft"
      }
    }
  }
  attr {
    key: "_output_shapes"
    value {
      list {
        shape {
          dim {
            size: 81
          }
          dim {
            size: 81
          }
        }
      }
    }
  }
  attr {
    key: "dtype"
    value {
      type: DT_FLOAT
    }
  }
  attr {
    key: "value"
    value {
      tensor {
        dtype: DT_FLOAT
        tensor_shape {
          dim {
            size: 81
          }
          dim {
            size: 81
          }
        }
        tensor_content: "9\216\343=\365\347 >\000\000\000\000\365\347 >\000\000\000\000\365\347 >\000\000\000\000\365\347 >\000\000\000\000\365\347 >9\216c>\000\000\000\0009\216c>\000\000\000\0009\216c>\000\000\000\0009\216c>\000\000\000\000\000\000\000\000\000\000\000\000\000\000\000\000\000\000\000\000\000\000\000\000\000\000\000\000\000\000\000\000\000\000\000\000\000\000\000\000\365\347 >9\216c>\000\000\000\0009\216c>\000\000\000\0009\216c>\000\000\000\0009\216c>\000\000\000\000\000\000\000\000\000\000\000\000\000\000\000\000\000\000\000\000\000\000\000\000\000\000\000\000\000\000\000\000\000\000\000\000\000\000\000\000\365\347 >9\216c>\000\000\000\0009\216c>\000\000\000\0009\216c>\000\000\000\0009\216c>\000\000\000\000\000\000\000\000\000\000\000\000\000\000\000\000\000\000\000\000\000\000\000\000\000\000\000\000\000\000\000\000\000\000\000\000\000\000\000\000\365\347 >9\216c>\000\000\000\0009\216c>\000\000\000\0009\216c>\000\000\000\0009\216c>\000\000\000\000\000\000\000\000\000\000\000\000\000\000\000\000\000\000\000\000\000\000\000\000\000\000\000\000\000\000\000\000\000\000\000\000\000\000\000\0009\216\343=\275\205\366=[\333\316\275D\207\337<(v\036\276\365\347\240\275HY\013\276\3073\027\276\352!\\\275\365\347 >SQ.>\030E\022\276\365\016\036=6\031`\2769\216\343\275\243\021E\276\020\325U\276<\250\233\275\000\000\000\000\000\000\000\000\000\000\000\000\000\000\000\000\000\000\000\000\000\000\000\000\000\000\000\000\000\000\000\000\000\000\000\000\365\347 >SQ.>\030E\022\276\365\016\036=6\031`\2769\216\343\275\243\021E\276\020\325U\276<\250\233\275\000\000\000\000\000\000\000\000\000\000\000\000\000\000\000\000\000\000\000\000\000\000\000\000\000\000\000\000\000\000\000\000\000\000\000\000\365\347 >SQ.>\030E\022\276\365\016\036=6\031`\2769\216\343\275\243\021E\276\020\325U\276<\250\233\275\000\000\000\000\000\000\000\000\000\000\000\000\000\000\000\000\000\000\000\000\000\000\000\000\000\000\000\000\000\000\000\000\000\000\000\000\365\347 >SQ.>\030E\022\276\365\016\036=6\031`\2769\216\343\275\243\021E\276\020\325U\276<\250\233\275\000\000\000\000\000\000\000\000\000\000\000\000\000\000\000\000\000\000\000\000\000\000\000\000\000\000\000\000\000\000\000\000\000\000\000\0009\216\343=D\207\337<(v\036\276\3073\027\276\352!\\\275\365\347\240\275HY\013>\275\205\366=[\333\316=\365\347 >\365\016\036=6\031`\276\020\325U\276<\250\233\2759\216\343\275\243\021E>SQ.>\030E\022>\000\000\000\000\000\000\000\000\000\000\000\000\000\000\000\000\000\000\000\000\000\000\000\000\000\000\000\000\000\000\000\000\000\000\000\000\365\347 >\365\016\036=6\031`\276\020\325U\276<\250\233\2759\216\343\275\243\021E>SQ.>\030E\022>\000\000\000\000\000\000\000\000\000\000\000\000\000\000\000\000\000\000\000\000\000\000\000\000\000\000\000\000\000\000\000\000\000\000\000\000\365\347 >\365\016\036=6\031`\276\020\325U\276<\250\233\2759\216\343\275\243\021E>SQ.>\030E\022>\000\000\000\000\000\000\000\000\000\000\000\000\000\000\000\000\000\000\000\000\000\000\000\000\000\000\000\000\000\000\000\000\000\000\000\000\365\347 >\365\016\036=6\031`\276\020\325U\276<\250\233\2759\216\343\275\243\021E>SQ.>\030E\022>\000\000\000\000\000\000\000\000\000\000\000\000\000\000\000\000\000\000\000\000\000\000\000\000\000\000\000\000\000\000\000\000\000\000\000\0009\216\343=\365\347\240\275HY\013\276\365\347\240\275HY\013>\365\347 >\000\000\000\000\365\347\240\275HY\013\276\365\347 >9\216\343\275\243\021E\2769\216\343\275\243\021E>9\216c>\000\000\000\0009\216\343\275\243\021E\276\000\000\000\000\000\000\000\000\000\000\000\000\000\000\000\000\000\000\000\000\000\000\000\000\000\000\000\000\000\000\000\000\000\000\000\000\365\347 >9\216\343\275\243\021E\2769\216\343\275\243\021E>9\216c>\000\000\000\0009\216\343\275\243\021E\276\000\000\000\000\000\000\000\000\000\000\000\000\000\000\000\000\000\000\000\000\000\000\000\000\000\000\000\000\000\000\000\000\000\000\000\000\365\347 >9\216\343\275\243\021E\2769\216\343\275\243\021E>9\216c>\000\000\000\0009\216\343\275\243\021E\276\000\000\000\000\000\000\000\000\000\000\000\000\000\000\000\000\000\000\000\000\000\000\000\000\000\000\000\000\000\000\000\000\000\000\000\000\365\347 >9\216\343\275\243\021E\2769\216\343\275\243\021E>9\216c>\000\000\000\0009\216\343\275\243\021E\276\000\000\000\000\000\000\000\000\000\000\000\000\000\000\000\000\000\000\000\000\000\000\000\000\000\000\000\000\000\000\000\000\000\000\000\0009\216\343=\3073\027\276\352!\\\275\275\205\366=[\333\316=\365\347\240\275HY\013\276D\207\337<(v\036>\365\347 >\020\325U\276<\250\233\275SQ.>\030E\022>9\216\343\275\243\021E\276\365\016\036=6\031`>\000\000\000\000\000\000\000\000\000\000\000\000\000\000\000\000\000\000\000\000\000\000\000\000\000\000\000\000\000\000\000\000\000\000\000\000\365\347 >\020\325U\276<\250\233\275SQ.>\030E\022>9\216\343\275\243\021E\276\365\016\036=6\031`>\000\000\000\000\000\000\000\000\000\000\000\000\000\000\000\000\000\000\000\000\000\000\000\000\000\000\000\000\000\000\000\000\000\000\000\000\365\347 >\020\325U\276<\250\233\275SQ.>\030E\022>9\216\343\275\243\021E\276\365\016\036=6\031`>\000\000\000\000\000\000\000\000\000\000\000\000\000\000\000\000\000\000\000\000\000\000\000\000\000\000\000\000\000\000\000\000\000\000\000\000\365\347 >\020\325U\276<\250\233\275SQ.>\030E\022>9\216\343\275\243\021E\276\365\016\036=6\031`>\000\000\000\000\000\000\000\000\000\000\000\000\000\000\000\000\000\000\000\000\000\000\000\000\000\000\000\000\000\000\000\000\000\000\000\0009\216\343=\3073\027\276\352!\\=\275\205\366=[\333\316\275\365\347\240\275HY\013>D\207\337<(v\036\276\365\347 >\020\325U\276<\250\233=SQ.>\030E\022\2769\216\343\275\243\021E>\365\016\036=6\031`\276\000\000\000\000\000\000\000\000\000\000\000\000\000\000\000\000\000\000\000\000\000\000\000\000\000\000\000\000\000\000\000\000\000\000\000\000\365\347 >\020\325U\276<\250\233=SQ.>\030E\022\2769\216\343\275\243\021E>\365\016\036=6\031`\276\000\000\000\000\000\000\000\000\000\000\000\000\000\000\000\000\000\000\000\000\000\000\000\000\000\000\000\000\000\000\000\000\000\000\000\000\365\347 >\020\325U\276<\250\233=SQ.>\030E\022\2769\216\343\275\243\021E>\365\016\036=6\031`\276\000\000\000\000\000\000\000\000\000\000\000\000\000\000\000\000\000\000\000\000\000\000\000\000\000\000\000\000\000\000\000\000\000\000\000\000\365\347 >\020\325U\276<\250\233=SQ.>\030E\022\2769\216\343\275\243\021E>\365\016\036=6\031`\276\000\000\000\000\000\000\000\000\000\000\000\000\000\000\000\000\000\000\000\000\000\000\000\000\000\000\000\000\000\000\000\000\000\000\000\0009\216\343=\365\347\240\275HY\013>\365\347\240\275HY\013\276\365\347 >\000\000\000\000\365\347\240\275HY\013>\365\347 >9\216\343\275\243\021E>9\216\343\275\243\021E\2769\216c>\000\000\000\0009\216\343\275\243\021E>\000\000\000\000\000\000\000\000\000\000\000\000\000\000\000\000\000\000\000\000\000\000\000\000\000\000\000\000\000\000\000\000\000\000\000\000\365\347 >9\216\343\275\243\021E>9\216\343\275\243\021E\2769\216c>\000\000\000\0009\216\343\275\243\021E>\000\000\000\000\000\000\000\000\000\000\000\000\000\000\000\000\000\000\000\000\000\000\000\000\000\000\000\000\000\000\000\000\000\000\000\000\365\347 >9\216\343\275\243\021E>9\216\343\275\243\021E\2769\216c>\000\000\000\0009\216\343\275\243\021E>\000\000\000\000\000\000\000\000\000\000\000\000\000\000\000\000\000\000\000\000\000\000\000\000\000\000\000\000\000\000\000\000\000\000\000\000\365\347 >9\216\343\275\243\021E>9\216\343\275\243\021E\2769\216c>\000\000\000\0009\216\343\275\243\021E>\000\000\000\000\000\000\000\000\000\000\000\000\000\000\000\000\000\000\000\000\000\000\000\000\000\000\000\000\000\000\000\000\000\000\000\0009\216\343=D\207\337<(v\036>\3073\027\276\352!\\=\365\347\240\275HY\013\276\275\205\366=[\333\316\275\365\347 >\365\016\036=6\031`>\020\325U\276<\250\233=9\216\343\275\243\021E\276SQ.>\030E\022\276\000\000\000\000\000\000\000\000\000\000\000\000\000\000\000\000\000\000\000\000\000\000\000\000\000\000\000\000\000\000\000\000\000\000\000\000\365\347 >\365\016\036=6\031`>\020\325U\276<\250\233=9\216\343\275\243\021E\276SQ.>\030E\022\276\000\000\000\000\000\000\000\000\000\000\000\000\000\000\000\000\000\000\000\000\000\000\000\000\000\000\000\000\000\000\000\000\000\000\000\000\365\347 >\365\016\036=6\031`>\020\325U\276<\250\233=9\216\343\275\243\021E\276SQ.>\030E\022\276\000\000\000\000\000\000\000\000\000\000\000\000\000\000\000\000\000\000\000\000\000\000\000\000\000\000\000\000\000\000\000\000\000\000\000\000\365\347 >\365\016\036=6\031`>\020\325U\276<\250\233=9\216\343\275\243\021E\276SQ.>\030E\022\276\000\000\000\000\000\000\000\000\000\000\000\000\000\000\000\000\000\000\000\000\000\000\000\000\000\000\000\000\000\000\000\000\000\000\000\0009\216\343=\275\205\366=[\333\316=D\207\337<(v\036>\365\347\240\275HY\013>\3073\027\276\352!\\=\365\347 >SQ.>\030E\022>\365\016\036=6\031`>9\216\343\275\243\021E>\020\325U\276<\250\233=\000\000\000\000\000\000\000\000\000\000\000\000\000\000\000\000\000\000\000\000\000\000\000\000\000\000\000\000\000\000\000\000\000\000\000\000\365\347 >SQ.>\030E\022>\365\016\036=6\031`>9\216\343\275\243\021E>\020\325U\276<\250\233=\000\000\000\000\000\000\000\000\000\000\000\000\000\000\000\000\000\000\000\000\000\000\000\000\000\000\000\000\000\000\000\000\000\000\000\000\365\347 >SQ.>\030E\022>\365\016\036=6\031`>9\216\343\275\243\021E>\020\325U\276<\250\233=\000\000\000\000\000\000\000\000\000\000\000\000\000\000\000\000\000\000\000\000\000\000\000\000\000\000\000\000\000\000\000\000\000\000\000\000\365\347 >SQ.>\030E\022>\365\016\036=6\031`>9\216\343\275\243\021E>\020\325U\276<\250\233=\000\000\000\000\000\000\000\000\000\000\000\000\000\000\000\000\000\000\000\000\000\000\000\000\000\000\000\000\000\000\000\000\000\000\000\0009\216\343=\365\347 >\000\000\000\000\365\347 >\000\000\000\000\365\347 >\000\000\000\000\365\347 >\000\000\000\000\275\205\366=SQ.>\000\000\000\000SQ.>\000\000\000\000SQ.>\000\000\000\000SQ.>\000\000\000\000[\333\316\275\030E\022\276\000\000\000\000\030E\022\276\000\000\000\000\030E\022\276\000\000\000\000\030E\022\276\000\000\000\000D\207\337<\365\016\036=\000\000\000\000\365\016\036=\000\000\000\000\365\016\036=\000\000\000\000\365\016\036=\000\000\000\000(v\036\2766\031`\276\000\000\000\0006\031`\276\000\000\000\0006\031`\276\000\000\000\0006\031`\276\000\000\000\000\365\347\240\2759\216\343\275\000\000\000\0009\216\343\275\000\000\000\0009\216\343\275\000\000\000\0009\216\343\275\000\000\000\000HY\013\276\243\021E\276\000\000\000\000\243\021E\276\000\000\000\000\243\021E\276\000\000\000\000\243\021E\276\000\000\000\000\3073\027\276\020\325U\276\000\000\000\000\020\325U\276\000\000\000\000\020\325U\276\000\000\000\000\020\325U\276\000\000\000\000\352!\\\275<\250\233\275\000\000\000\000<\250\233\275\000\000\000\000<\250\233\275\000\000\000\000<\250\233\275\000\000\000\0009\216\343=\275\205\366=[\333\316\275D\207\337<(v\036\276\365\347\240\275HY\013\276\3073\027\276\352!\\\275\275\205\366=\373\210\005>6\031\340\275\331(\362<]\253+\276SQ\256\275\252\366\026\276\026\316#\276\n{n\275[\333\316\2756\031\340\275|\n\274=-2\313\2748\014\020>\030E\222=\315X\375=\340r\t>\347\033H=D\207\337<\331(\362<-2\313\274\215\222\333;<\250\033\275\365\016\236\274\363\341\010\275\276\206\024\275\226<X\274(v\036\276]\253+\2768\014\020><\250\033\275\244\261\\>6\031\340=1\023B>l\225R>\332J\231=\365\347\240\275SQ\256\275\030E\222=\365\016\236\2746\031\340=9\216c=\243\021\305=\020\325\325=<\250\033=HY\013\276\252\366\026\276\315X\375=\363\341\010\2751\023B>\243\021\305=\253\252*>\'/9>\225\315\206=\3073\027\276\026\316#\276\340r\t>\276\206\024\275l\225R>\020\325\325=\'/9>\306\357H>\030E\222=\352!\\\275\n{n\275\347\033H=\226<X\274\332J\231=<\250\033=\225\315\206=\030E\222=\231\363\324<9\216\343=D\207\337<(v\036\276\3073\027\276\352!\\\275\365\347\240\275HY\013>\275\205\366=[\333\316=\275\205\366=\331(\362<]\253+\276\026\316#\276\n{n\275SQ\256\275\252\366\026>\373\210\005>6\031\340=[\333\316\275-2\313\2748\014\020>\340r\t>\347\033H=\030E\222=\315X\375\2756\031\340\275|\n\274\275D\207\337<\215\222\333;<\250\033\275\276\206\024\275\226<X\274\365\016\236\274\363\341\010=\331(\362<-2\313<(v\036\276<\250\033\275\244\261\\>l\225R>\332J\231=6\031\340=1\023B\276]\253+\2768\014\020\276\365\347\240\275\365\016\236\2746\031\340=\020\325\325=<\250\033=9\216c=\243\021\305\275SQ\256\275\030E\222\275HY\013\276\363\341\010\2751\023B>\'/9>\225\315\206=\243\021\305=\253\252*\276\252\366\026\276\315X\375\275\3073\027\276\276\206\024\275l\225R>\306\357H>\030E\222=\020\325\325=\'/9\276\026\316#\276\340r\t\276\352!\\\275\226<X\274\332J\231=\030E\222=\231\363\324<<\250\033=\225\315\206\275\n{n\275\347\033H\2759\216\343=\365\347\240\275HY\013\276\365\347\240\275HY\013>\365\347 >\000\000\000\000\365\347\240\275HY\013\276\275\205\366=SQ\256\275\252\366\026\276SQ\256\275\252\366\026>SQ.>\000\000\000\000SQ\256\275\252\366\026\276[\333\316\275\030E\222=\315X\375=\030E\222=\315X\375\275\030E\022\276\000\000\000\000\030E\222=\315X\375=D\207\337<\365\016\236\274\363\341\010\275\365\016\236\274\363\341\010=\365\016\036=\000\000\000\000\365\016\236\274\363\341\010\275(v\036\2766\031\340=1\023B>6\031\340=1\023B\2766\031`\276\000\000\000\0006\031\340=1\023B>\365\347\240\2759\216c=\243\021\305=9\216c=\243\021\305\2759\216\343\275\000\000\000\0009\216c=\243\021\305=HY\013\276\243\021\305=\253\252*>\243\021\305=\253\252*\276\243\021E\276\000\000\000\000\243\021\305=\253\252*>\3073\027\276\020\325\325=\'/9>\020\325\325=\'/9\276\020\325U\276\000\000\000\000\020\325\325=\'/9>\352!\\\275<\250\033=\225\315\206=<\250\033=\225\315\206\275<\250\233\275\000\000\000\000<\250\033=\225\315\206=9\216\343=\3073\027\276\352!\\\275\275\205\366=[\333\316=\365\347\240\275HY\013\276D\207\337<(v\036>\275\205\366=\026\316#\276\n{n\275\373\210\005>6\031\340=SQ\256\275\252\366\026\276\331(\362<]\253+>[\333\316\275\340r\t>\347\033H=6\031\340\275|\n\274\275\030E\222=\315X\375=-2\313\2748\014\020\276D\207\337<\276\206\024\275\226<X\274\331(\362<-2\313<\365\016\236\274\363\341\010\275\215\222\333;<\250\033=(v\036\276l\225R>\332J\231=]\253+\2768\014\020\2766\031\340=1\023B><\250\033\275\244\261\\\276\365\347\240\275\020\325\325=<\250\033=SQ\256\275\030E\222\2759\216c=\243\021\305=\365\016\236\2746\031\340\275HY\013\276\'/9>\225\315\206=\252\366\026\276\315X\375\275\243\021\305=\253\252*>\363\341\010\2751\023B\276\3073\027\276\306\357H>\030E\222=\026\316#\276\340r\t\276\020\325\325=\'/9>\276\206\024\275l\225R\276\352!\\\275\030E\222=\231\363\324<\n{n\275\347\033H\275<\250\033=\225\315\206=\226<X\274\332J\231\2759\216\343=\3073\027\276\352!\\=\275\205\366=[\333\316\275\365\347\240\275HY\013>D\207\337<(v\036\276\275\205\366=\026\316#\276\n{n=\373\210\005>6\031\340\275SQ\256\275\252\366\026>\331(\362<]\253+\276[\333\316\275\340r\t>\347\033H\2756\031\340\275|\n\274=\030E\222=\315X\375\275-2\313\2748\014\020>D\207\337<\276\206\024\275\226<X<\331(\362<-2\313\274\365\016\236\274\363\341\010=\215\222\333;<\250\033\275(v\036\276l\225R>\332J\231\275]\253+\2768\014\020>6\031\340=1\023B\276<\250\033\275\244\261\\>\365\347\240\275\020\325\325=<\250\033\275SQ\256\275\030E\222=9\216c=\243\021\305\275\365\016\236\2746\031\340=HY\013\276\'/9>\225\315\206\275\252\366\026\276\315X\375=\243\021\305=\253\252*\276\363\341\010\2751\023B>\3073\027\276\306\357H>\030E\222\275\026\316#\276\340r\t>\020\325\325=\'/9\276\276\206\024\275l\225R>\352!\\\275\030E\222=\231\363\324\274\n{n\275\347\033H=<\250\033=\225\315\206\275\226<X\274\332J\231=9\216\343=\365\347\240\275HY\013>\365\347\240\275HY\013\276\365\347 >\000\000\000\000\365\347\240\275HY\013>\275\205\366=SQ\256\275\252\366\026>SQ\256\275\252\366\026\276SQ.>\000\000\000\000SQ\256\275\252\366\026>[\333\316\275\030E\222=\315X\375\275\030E\222=\315X\375=\030E\022\276\000\000\000\000\030E\222=\315X\375\275D\207\337<\365\016\236\274\363\341\010=\365\016\236\274\363\341\010\275\365\016\036=\000\000\000\000\365\016\236\274\363\341\010=(v\036\2766\031\340=1\023B\2766\031\340=1\023B>6\031`\276\000\000\000\0006\031\340=1\023B\276\365\347\240\2759\216c=\243\021\305\2759\216c=\243\021\305=9\216\343\275\000\000\000\0009\216c=\243\021\305\275HY\013\276\243\021\305=\253\252*\276\243\021\305=\253\252*>\243\021E\276\000\000\000\000\243\021\305=\253\252*\276\3073\027\276\020\325\325=\'/9\276\020\325\325=\'/9>\020\325U\276\000\000\000\000\020\325\325=\'/9\276\352!\\\275<\250\033=\225\315\206\275<\250\033=\225\315\206=<\250\233\275\000\000\000\000<\250\033=\225\315\206\2759\216\343=D\207\337<(v\036>\3073\027\276\352!\\=\365\347\240\275HY\013\276\275\205\366=[\333\316\275\275\205\366=\331(\362<]\253+>\026\316#\276\n{n=SQ\256\275\252\366\026\276\373\210\005>6\031\340\275[\333\316\275-2\313\2748\014\020\276\340r\t>\347\033H\275\030E\222=\315X\375=6\031\340\275|\n\274=D\207\337<\215\222\333;<\250\033=\276\206\024\275\226<X<\365\016\236\274\363\341\010\275\331(\362<-2\313\274(v\036\276<\250\033\275\244\261\\\276l\225R>\332J\231\2756\031\340=1\023B>]\253+\2768\014\020>\365\347\240\275\365\016\236\2746\031\340\275\020\325\325=<\250\033\2759\216c=\243\021\305=SQ\256\275\030E\222=HY\013\276\363\341\010\2751\023B\276\'/9>\225\315\206\275\243\021\305=\253\252*>\252\366\026\276\315X\375=\3073\027\276\276\206\024\275l\225R\276\306\357H>\030E\222\275\020\325\325=\'/9>\026\316#\276\340r\t>\352!\\\275\226<X\274\332J\231\275\030E\222=\231\363\324\274<\250\033=\225\315\206=\n{n\275\347\033H=9\216\343=\275\205\366=[\333\316=D\207\337<(v\036>\365\347\240\275HY\013>\3073\027\276\352!\\=\275\205\366=\373\210\005>6\031\340=\331(\362<]\253+>SQ\256\275\252\366\026>\026\316#\276\n{n=[\333\316\2756\031\340\275|\n\274\275-2\313\2748\014\020\276\030E\222=\315X\375\275\340r\t>\347\033H\275D\207\337<\331(\362<-2\313<\215\222\333;<\250\033=\365\016\236\274\363\341\010=\276\206\024\275\226<X<(v\036\276]\253+\2768\014\020\276<\250\033\275\244\261\\\2766\031\340=1\023B\276l\225R>\332J\231\275\365\347\240\275SQ\256\275\030E\222\275\365\016\236\2746\031\340\2759\216c=\243\021\305\275\020\325\325=<\250\033\275HY\013\276\252\366\026\276\315X\375\275\363\341\010\2751\023B\276\243\021\305=\253\252*\276\'/9>\225\315\206\275\3073\027\276\026\316#\276\340r\t\276\276\206\024\275l\225R\276\020\325\325=\'/9\276\306\357H>\030E\222\275\352!\\\275\n{n\275\347\033H\275\226<X\274\332J\231\275<\250\033=\225\315\206\275\030E\222=\231\363\324\2749\216\343=\365\347 >\000\000\000\000\365\347 >\000\000\000\000\365\347 >\000\000\000\000\365\347 >\000\000\000\000D\207\337<\365\016\036=\000\000\000\000\365\016\036=\000\000\000\000\365\016\036=\000\000\000\000\365\016\036=\000\000\000\000(v\036\2766\031`\276\000\000\000\0006\031`\276\000\000\000\0006\031`\276\000\000\000\0006\031`\276\000\000\000\000\3073\027\276\020\325U\276\000\000\000\000\020\325U\276\000\000\000\000\020\325U\276\000\000\000\000\020\325U\276\000\000\000\000\352!\\\275<\250\233\275\000\000\000\000<\250\233\275\000\000\000\000<\250\233\275\000\000\000\000<\250\233\275\000\000\000\000\365\347\240\2759\216\343\275\000\000\000\0009\216\343\275\000\000\000\0009\216\343\275\000\000\000\0009\216\343\275\000\000\000\000HY\013>\243\021E>\000\000\000\000\243\021E>\000\000\000\000\243\021E>\000\000\000\000\243\021E>\000\000\000\000\275\205\366=SQ.>\000\000\000\000SQ.>\000\000\000\000SQ.>\000\000\000\000SQ.>\000\000\000\000[\333\316=\030E\022>\000\000\000\000\030E\022>\000\000\000\000\030E\022>\000\000\000\000\030E\022>\000\000\000\0009\216\343=\275\205\366=[\333\316\275D\207\337<(v\036\276\365\347\240\275HY\013\276\3073\027\276\352!\\\275D\207\337<\331(\362<-2\313\274\215\222\333;<\250\033\275\365\016\236\274\363\341\010\275\276\206\024\275\226<X\274(v\036\276]\253+\2768\014\020><\250\033\275\244\261\\>6\031\340=1\023B>l\225R>\332J\231=\3073\027\276\026\316#\276\340r\t>\276\206\024\275l\225R>\020\325\325=\'/9>\306\357H>\030E\222=\352!\\\275\n{n\275\347\033H=\226<X\274\332J\231=<\250\033=\225\315\206=\030E\222=\231\363\324<\365\347\240\275SQ\256\275\030E\222=\365\016\236\2746\031\340=9\216c=\243\021\305=\020\325\325=<\250\033=HY\013>\252\366\026>\315X\375\275\363\341\010=1\023B\276\243\021\305\275\253\252*\276\'/9\276\225\315\206\275\275\205\366=\373\210\005>6\031\340\275\331(\362<]\253+\276SQ\256\275\252\366\026\276\026\316#\276\n{n\275[\333\316=6\031\340=|\n\274\275-2\313<8\014\020\276\030E\222\275\315X\375\275\340r\t\276\347\033H\2759\216\343=D\207\337<(v\036\276\3073\027\276\352!\\\275\365\347\240\275HY\013>\275\205\366=[\333\316=D\207\337<\215\222\333;<\250\033\275\276\206\024\275\226<X\274\365\016\236\274\363\341\010=\331(\362<-2\313<(v\036\276<\250\033\275\244\261\\>l\225R>\332J\231=6\031\340=1\023B\276]\253+\2768\014\020\276\3073\027\276\276\206\024\275l\225R>\306\357H>\030E\222=\020\325\325=\'/9\276\026\316#\276\340r\t\276\352!\\\275\226<X\274\332J\231=\030E\222=\231\363\324<<\250\033=\225\315\206\275\n{n\275\347\033H\275\365\347\240\275\365\016\236\2746\031\340=\020\325\325=<\250\033=9\216c=\243\021\305\275SQ\256\275\030E\222\275HY\013>\363\341\010=1\023B\276\'/9\276\225\315\206\275\243\021\305\275\253\252*>\252\366\026>\315X\375=\275\205\366=\331(\362<]\253+\276\026\316#\276\n{n\275SQ\256\275\252\366\026>\373\210\005>6\031\340=[\333\316=-2\313<8\014\020\276\340r\t\276\347\033H\275\030E\222\275\315X\375=6\031\340=|\n\274=9\216\343=\365\347\240\275HY\013\276\365\347\240\275HY\013>\365\347 >\000\000\000\000\365\347\240\275HY\013\276D\207\337<\365\016\236\274\363\341\010\275\365\016\236\274\363\341\010=\365\016\036=\000\000\000\000\365\016\236\274\363\341\010\275(v\036\2766\031\340=1\023B>6\031\340=1\023B\2766\031`\276\000\000\000\0006\031\340=1\023B>\3073\027\276\020\325\325=\'/9>\020\325\325=\'/9\276\020\325U\276\000\000\000\000\020\325\325=\'/9>\352!\\\275<\250\033=\225\315\206=<\250\033=\225\315\206\275<\250\233\275\000\000\000\000<\250\033=\225\315\206=\365\347\240\2759\216c=\243\021\305=9\216c=\243\021\305\2759\216\343\275\000\000\000\0009\216c=\243\021\305=HY\013>\243\021\305\275\253\252*\276\243\021\305\275\253\252*>\243\021E>\000\000\000\000\243\021\305\275\253\252*\276\275\205\366=SQ\256\275\252\366\026\276SQ\256\275\252\366\026>SQ.>\000\000\000\000SQ\256\275\252\366\026\276[\333\316=\030E\222\275\315X\375\275\030E\222\275\315X\375=\030E\022>\000\000\000\000\030E\222\275\315X\375\2759\216\343=\3073\027\276\352!\\\275\275\205\366=[\333\316=\365\347\240\275HY\013\276D\207\337<(v\036>D\207\337<\276\206\024\275\226<X\274\331(\362<-2\313<\365\016\236\274\363\341\010\275\215\222\333;<\250\033=(v\036\276l\225R>\332J\231=]\253+\2768\014\020\2766\031\340=1\023B><\250\033\275\244\261\\\276\3073\027\276\306\357H>\030E\222=\026\316#\276\340r\t\276\020\325\325=\'/9>\276\206\024\275l\225R\276\352!\\\275\030E\222=\231\363\324<\n{n\275\347\033H\275<\250\033=\225\315\206=\226<X\274\332J\231\275\365\347\240\275\020\325\325=<\250\033=SQ\256\275\030E\222\2759\216c=\243\021\305=\365\016\236\2746\031\340\275HY\013>\'/9\276\225\315\206\275\252\366\026>\315X\375=\243\021\305\275\253\252*\276\363\341\010=1\023B>\275\205\366=\026\316#\276\n{n\275\373\210\005>6\031\340=SQ\256\275\252\366\026\276\331(\362<]\253+>[\333\316=\340r\t\276\347\033H\2756\031\340=|\n\274=\030E\222\275\315X\375\275-2\313<8\014\020>9\216\343=\3073\027\276\352!\\=\275\205\366=[\333\316\275\365\347\240\275HY\013>D\207\337<(v\036\276D\207\337<\276\206\024\275\226<X<\331(\362<-2\313\274\365\016\236\274\363\341\010=\215\222\333;<\250\033\275(v\036\276l\225R>\332J\231\275]\253+\2768\014\020>6\031\340=1\023B\276<\250\033\275\244\261\\>\3073\027\276\306\357H>\030E\222\275\026\316#\276\340r\t>\020\325\325=\'/9\276\276\206\024\275l\225R>\352!\\\275\030E\222=\231\363\324\274\n{n\275\347\033H=<\250\033=\225\315\206\275\226<X\274\332J\231=\365\347\240\275\020\325\325=<\250\033\275SQ\256\275\030E\222=9\216c=\243\021\305\275\365\016\236\2746\031\340=HY\013>\'/9\276\225\315\206=\252\366\026>\315X\375\275\243\021\305\275\253\252*>\363\341\010=1\023B\276\275\205\366=\026\316#\276\n{n=\373\210\005>6\031\340\275SQ\256\275\252\366\026>\331(\362<]\253+\276[\333\316=\340r\t\276\347\033H=6\031\340=|\n\274\275\030E\222\275\315X\375=-2\313<8\014\020\2769\216\343=\365\347\240\275HY\013>\365\347\240\275HY\013\276\365\347 >\000\000\000\000\365\347\240\275HY\013>D\207\337<\365\016\236\274\363\341\010=\365\016\236\274\363\341\010\275\365\016\036=\000\000\000\000\365\016\236\274\363\341\010=(v\036\2766\031\340=1\023B\2766\031\340=1\023B>6\031`\276\000\000\000\0006\031\340=1\023B\276\3073\027\276\020\325\325=\'/9\276\020\325\325=\'/9>\020\325U\276\000\000\000\000\020\325\325=\'/9\276\352!\\\275<\250\033=\225\315\206\275<\250\033=\225\315\206=<\250\233\275\000\000\000\000<\250\033=\225\315\206\275\365\347\240\2759\216c=\243\021\305\2759\216c=\243\021\305=9\216\343\275\000\000\000\0009\216c=\243\021\305\275HY\013>\243\021\305\275\253\252*>\243\021\305\275\253\252*\276\243\021E>\000\000\000\000\243\021\305\275\253\252*>\275\205\366=SQ\256\275\252\366\026>SQ\256\275\252\366\026\276SQ.>\000\000\000\000SQ\256\275\252\366\026>[\333\316=\030E\222\275\315X\375=\030E\222\275\315X\375\275\030E\022>\000\000\000\000\030E\222\275\315X\375=9\216\343=D\207\337<(v\036>\3073\027\276\352!\\=\365\347\240\275HY\013\276\275\205\366=[\333\316\275D\207\337<\215\222\333;<\250\033=\276\206\024\275\226<X<\365\016\236\274\363\341\010\275\331(\362<-2\313\274(v\036\276<\250\033\275\244\261\\\276l\225R>\332J\231\2756\031\340=1\023B>]\253+\2768\014\020>\3073\027\276\276\206\024\275l\225R\276\306\357H>\030E\222\275\020\325\325=\'/9>\026\316#\276\340r\t>\352!\\\275\226<X\274\332J\231\275\030E\222=\231\363\324\274<\250\033=\225\315\206=\n{n\275\347\033H=\365\347\240\275\365\016\236\2746\031\340\275\020\325\325=<\250\033\2759\216c=\243\021\305=SQ\256\275\030E\222=HY\013>\363\341\010=1\023B>\'/9\276\225\315\206=\243\021\305\275\253\252*\276\252\366\026>\315X\375\275\275\205\366=\331(\362<]\253+>\026\316#\276\n{n=SQ\256\275\252\366\026\276\373\210\005>6\031\340\275[\333\316=-2\313<8\014\020>\340r\t\276\347\033H=\030E\222\275\315X\375\2756\031\340=|\n\274\2759\216\343=\275\205\366=[\333\316=D\207\337<(v\036>\365\347\240\275HY\013>\3073\027\276\352!\\=D\207\337<\331(\362<-2\313<\215\222\333;<\250\033=\365\016\236\274\363\341\010=\276\206\024\275\226<X<(v\036\276]\253+\2768\014\020\276<\250\033\275\244\261\\\2766\031\340=1\023B\276l\225R>\332J\231\275\3073\027\276\026\316#\276\340r\t\276\276\206\024\275l\225R\276\020\325\325=\'/9\276\306\357H>\030E\222\275\352!\\\275\n{n\275\347\033H\275\226<X\274\332J\231\275<\250\033=\225\315\206\275\030E\222=\231\363\324\274\365\347\240\275SQ\256\275\030E\222\275\365\016\236\2746\031\340\2759\216c=\243\021\305\275\020\325\325=<\250\033\275HY\013>\252\366\026>\315X\375=\363\341\010=1\023B>\243\021\305\275\253\252*>\'/9\276\225\315\206=\275\205\366=\373\210\005>6\031\340=\331(\362<]\253+>SQ\256\275\252\366\026>\026\316#\276\n{n=[\333\316=6\031\340=|\n\274=-2\313<8\014\020>\030E\222\275\315X\375=\340r\t\276\347\033H=9\216\343=\365\347 >\000\000\000\000\365\347 >\000\000\000\000\365\347 >\000\000\000\000\365\347 >\000\000\000\000\365\347\240\2759\216\343\275\000\000\000\0009\216\343\275\000\000\000\0009\216\343\275\000\000\000\0009\216\343\275\000\000\000\000HY\013\276\243\021E\276\000\000\000\000\243\021E\276\000\000\000\000\243\021E\276\000\000\000\000\243\021E\276\000\000\000\000\365\347\240\2759\216\343\275\000\000\000\0009\216\343\275\000\000\000\0009\216\343\275\000\000\000\0009\216\343\275\000\000\000\000HY\013>\243\021E>\000\000\000\000\243\021E>\000\000\000\000\243\021E>\000\000\000\000\243\021E>\000\000\000\000\365\347 >9\216c>\000\000\000\0009\216c>\000\000\000\0009\216c>\000\000\000\0009\216c>\000\000\000\000\000\000\000\000\000\000\000\000\000\000\000\000\000\000\000\000\000\000\000\000\000\000\000\000\000\000\000\000\000\000\000\000\000\000\000\000\365\347\240\2759\216\343\275\000\000\000\0009\216\343\275\000\000\000\0009\216\343\275\000\000\000\0009\216\343\275\000\000\000\000HY\013\276\243\021E\276\000\000\000\000\243\021E\276\000\000\000\000\243\021E\276\000\000\000\000\243\021E\276\000\000\000\0009\216\343=\275\205\366=[\333\316\275D\207\337<(v\036\276\365\347\240\275HY\013\276\3073\027\276\352!\\\275\365\347\240\275SQ\256\275\030E\222=\365\016\236\2746\031\340=9\216c=\243\021\305=\020\325\325=<\250\033=HY\013\276\252\366\026\276\315X\375=\363\341\010\2751\023B>\243\021\305=\253\252*>\'/9>\225\315\206=\365\347\240\275SQ\256\275\030E\222=\365\016\236\2746\031\340=9\216c=\243\021\305=\020\325\325=<\250\033=HY\013>\252\366\026>\315X\375\275\363\341\010=1\023B\276\243\021\305\275\253\252*\276\'/9\276\225\315\206\275\365\347 >SQ.>\030E\022\276\365\016\036=6\031`\2769\216\343\275\243\021E\276\020\325U\276<\250\233\275\000\000\000\000\000\000\000\000\000\000\000\000\000\000\000\000\000\000\000\000\000\000\000\000\000\000\000\000\000\000\000\000\000\000\000\000\365\347\240\275SQ\256\275\030E\222=\365\016\236\2746\031\340=9\216c=\243\021\305=\020\325\325=<\250\033=HY\013\276\252\366\026\276\315X\375=\363\341\010\2751\023B>\243\021\305=\253\252*>\'/9>\225\315\206=9\216\343=D\207\337<(v\036\276\3073\027\276\352!\\\275\365\347\240\275HY\013>\275\205\366=[\333\316=\365\347\240\275\365\016\236\2746\031\340=\020\325\325=<\250\033=9\216c=\243\021\305\275SQ\256\275\030E\222\275HY\013\276\363\341\010\2751\023B>\'/9>\225\315\206=\243\021\305=\253\252*\276\252\366\026\276\315X\375\275\365\347\240\275\365\016\236\2746\031\340=\020\325\325=<\250\033=9\216c=\243\021\305\275SQ\256\275\030E\222\275HY\013>\363\341\010=1\023B\276\'/9\276\225\315\206\275\243\021\305\275\253\252*>\252\366\026>\315X\375=\365\347 >\365\016\036=6\031`\276\020\325U\276<\250\233\2759\216\343\275\243\021E>SQ.>\030E\022>\000\000\000\000\000\000\000\000\000\000\000\000\000\000\000\000\000\000\000\000\000\000\000\000\000\000\000\000\000\000\000\000\000\000\000\000\365\347\240\275\365\016\236\2746\031\340=\020\325\325=<\250\033=9\216c=\243\021\305\275SQ\256\275\030E\222\275HY\013\276\363\341\010\2751\023B>\'/9>\225\315\206=\243\021\305=\253\252*\276\252\366\026\276\315X\375\2759\216\343=\365\347\240\275HY\013\276\365\347\240\275HY\013>\365\347 >\000\000\000\000\365\347\240\275HY\013\276\365\347\240\2759\216c=\243\021\305=9\216c=\243\021\305\2759\216\343\275\000\000\000\0009\216c=\243\021\305=HY\013\276\243\021\305=\253\252*>\243\021\305=\253\252*\276\243\021E\276\000\000\000\000\243\021\305=\253\252*>\365\347\240\2759\216c=\243\021\305=9\216c=\243\021\305\2759\216\343\275\000\000\000\0009\216c=\243\021\305=HY\013>\243\021\305\275\253\252*\276\243\021\305\275\253\252*>\243\021E>\000\000\000\000\243\021\305\275\253\252*\276\365\347 >9\216\343\275\243\021E\2769\216\343\275\243\021E>9\216c>\000\000\000\0009\216\343\275\243\021E\276\000\000\000\000\000\000\000\000\000\000\000\000\000\000\000\000\000\000\000\000\000\000\000\000\000\000\000\000\000\000\000\000\000\000\000\000\365\347\240\2759\216c=\243\021\305=9\216c=\243\021\305\2759\216\343\275\000\000\000\0009\216c=\243\021\305=HY\013\276\243\021\305=\253\252*>\243\021\305=\253\252*\276\243\021E\276\000\000\000\000\243\021\305=\253\252*>9\216\343=\3073\027\276\352!\\\275\275\205\366=[\333\316=\365\347\240\275HY\013\276D\207\337<(v\036>\365\347\240\275\020\325\325=<\250\033=SQ\256\275\030E\222\2759\216c=\243\021\305=\365\016\236\2746\031\340\275HY\013\276\'/9>\225\315\206=\252\366\026\276\315X\375\275\243\021\305=\253\252*>\363\341\010\2751\023B\276\365\347\240\275\020\325\325=<\250\033=SQ\256\275\030E\222\2759\216c=\243\021\305=\365\016\236\2746\031\340\275HY\013>\'/9\276\225\315\206\275\252\366\026>\315X\375=\243\021\305\275\253\252*\276\363\341\010=1\023B>\365\347 >\020\325U\276<\250\233\275SQ.>\030E\022>9\216\343\275\243\021E\276\365\016\036=6\031`>\000\000\000\000\000\000\000\000\000\000\000\000\000\000\000\000\000\000\000\000\000\000\000\000\000\000\000\000\000\000\000\000\000\000\000\000\365\347\240\275\020\325\325=<\250\033=SQ\256\275\030E\222\2759\216c=\243\021\305=\365\016\236\2746\031\340\275HY\013\276\'/9>\225\315\206=\252\366\026\276\315X\375\275\243\021\305=\253\252*>\363\341\010\2751\023B\2769\216\343=\3073\027\276\352!\\=\275\205\366=[\333\316\275\365\347\240\275HY\013>D\207\337<(v\036\276\365\347\240\275\020\325\325=<\250\033\275SQ\256\275\030E\222=9\216c=\243\021\305\275\365\016\236\2746\031\340=HY\013\276\'/9>\225\315\206\275\252\366\026\276\315X\375=\243\021\305=\253\252*\276\363\341\010\2751\023B>\365\347\240\275\020\325\325=<\250\033\275SQ\256\275\030E\222=9\216c=\243\021\305\275\365\016\236\2746\031\340=HY\013>\'/9\276\225\315\206=\252\366\026>\315X\375\275\243\021\305\275\253\252*>\363\341\010=1\023B\276\365\347 >\020\325U\276<\250\233=SQ.>\030E\022\2769\216\343\275\243\021E>\365\016\036=6\031`\276\000\000\000\000\000\000\000\000\000\000\000\000\000\000\000\000\000\000\000\000\000\000\000\000\000\000\000\000\000\000\000\000\000\000\000\000\365\347\240\275\020\325\325=<\250\033\275SQ\256\275\030E\222=9\216c=\243\021\305\275\365\016\236\2746\031\340=HY\013\276\'/9>\225\315\206\275\252\366\026\276\315X\375=\243\021\305=\253\252*\276\363\341\010\2751\023B>9\216\343=\365\347\240\275HY\013>\365\347\240\275HY\013\276\365\347 >\000\000\000\000\365\347\240\275HY\013>\365\347\240\2759\216c=\243\021\305\2759\216c=\243\021\305=9\216\343\275\000\000\000\0009\216c=\243\021\305\275HY\013\276\243\021\305=\253\252*\276\243\021\305=\253\252*>\243\021E\276\000\000\000\000\243\021\305=\253\252*\276\365\347\240\2759\216c=\243\021\305\2759\216c=\243\021\305=9\216\343\275\000\000\000\0009\216c=\243\021\305\275HY\013>\243\021\305\275\253\252*>\243\021\305\275\253\252*\276\243\021E>\000\000\000\000\243\021\305\275\253\252*>\365\347 >9\216\343\275\243\021E>9\216\343\275\243\021E\2769\216c>\000\000\000\0009\216\343\275\243\021E>\000\000\000\000\000\000\000\000\000\000\000\000\000\000\000\000\000\000\000\000\000\000\000\000\000\000\000\000\000\000\000\000\000\000\000\000\365\347\240\2759\216c=\243\021\305\2759\216c=\243\021\305=9\216\343\275\000\000\000\0009\216c=\243\021\305\275HY\013\276\243\021\305=\253\252*\276\243\021\305=\253\252*>\243\021E\276\000\000\000\000\243\021\305=\253\252*\2769\216\343=D\207\337<(v\036>\3073\027\276\352!\\=\365\347\240\275HY\013\276\275\205\366=[\333\316\275\365\347\240\275\365\016\236\2746\031\340\275\020\325\325=<\250\033\2759\216c=\243\021\305=SQ\256\275\030E\222=HY\013\276\363\341\010\2751\023B\276\'/9>\225\315\206\275\243\021\305=\253\252*>\252\366\026\276\315X\375=\365\347\240\275\365\016\236\2746\031\340\275\020\325\325=<\250\033\2759\216c=\243\021\305=SQ\256\275\030E\222=HY\013>\363\341\010=1\023B>\'/9\276\225\315\206=\243\021\305\275\253\252*\276\252\366\026>\315X\375\275\365\347 >\365\016\036=6\031`>\020\325U\276<\250\233=9\216\343\275\243\021E\276SQ.>\030E\022\276\000\000\000\000\000\000\000\000\000\000\000\000\000\000\000\000\000\000\000\000\000\000\000\000\000\000\000\000\000\000\000\000\000\000\000\000\365\347\240\275\365\016\236\2746\031\340\275\020\325\325=<\250\033\2759\216c=\243\021\305=SQ\256\275\030E\222=HY\013\276\363\341\010\2751\023B\276\'/9>\225\315\206\275\243\021\305=\253\252*>\252\366\026\276\315X\375=9\216\343=\275\205\366=[\333\316=D\207\337<(v\036>\365\347\240\275HY\013>\3073\027\276\352!\\=\365\347\240\275SQ\256\275\030E\222\275\365\016\236\2746\031\340\2759\216c=\243\021\305\275\020\325\325=<\250\033\275HY\013\276\252\366\026\276\315X\375\275\363\341\010\2751\023B\276\243\021\305=\253\252*\276\'/9>\225\315\206\275\365\347\240\275SQ\256\275\030E\222\275\365\016\236\2746\031\340\2759\216c=\243\021\305\275\020\325\325=<\250\033\275HY\013>\252\366\026>\315X\375=\363\341\010=1\023B>\243\021\305\275\253\252*>\'/9\276\225\315\206=\365\347 >SQ.>\030E\022>\365\016\036=6\031`>9\216\343\275\243\021E>\020\325U\276<\250\233=\000\000\000\000\000\000\000\000\000\000\000\000\000\000\000\000\000\000\000\000\000\000\000\000\000\000\000\000\000\000\000\000\000\000\000\000\365\347\240\275SQ\256\275\030E\222\275\365\016\236\2746\031\340\2759\216c=\243\021\305\275\020\325\325=<\250\033\275HY\013\276\252\366\026\276\315X\375\275\363\341\010\2751\023B\276\243\021\305=\253\252*\276\'/9>\225\315\206\2759\216\343=\365\347 >\000\000\000\000\365\347 >\000\000\000\000\365\347 >\000\000\000\000\365\347 >\000\000\000\000\3073\027\276\020\325U\276\000\000\000\000\020\325U\276\000\000\000\000\020\325U\276\000\000\000\000\020\325U\276\000\000\000\000\352!\\\275<\250\233\275\000\000\000\000<\250\233\275\000\000\000\000<\250\233\275\000\000\000\000<\250\233\275\000\000\000\000\275\205\366=SQ.>\000\000\000\000SQ.>\000\000\000\000SQ.>\000\000\000\000SQ.>\000\000\000\000[\333\316=\030E\022>\000\000\000\000\030E\022>\000\000\000\000\030E\022>\000\000\000\000\030E\022>\000\000\000\000\365\347\240\2759\216\343\275\000\000\000\0009\216\343\275\000\000\000\0009\216\343\275\000\000\000\0009\216\343\275\000\000\000\000HY\013\276\243\021E\276\000\000\000\000\243\021E\276\000\000\000\000\243\021E\276\000\000\000\000\243\021E\276\000\000\000\000D\207\337<\365\016\036=\000\000\000\000\365\016\036=\000\000\000\000\365\016\036=\000\000\000\000\365\016\036=\000\000\000\000(v\036>6\031`>\000\000\000\0006\031`>\000\000\000\0006\031`>\000\000\000\0006\031`>\000\000\000\0009\216\343=\275\205\366=[\333\316\275D\207\337<(v\036\276\365\347\240\275HY\013\276\3073\027\276\352!\\\275\3073\027\276\026\316#\276\340r\t>\276\206\024\275l\225R>\020\325\325=\'/9>\306\357H>\030E\222=\352!\\\275\n{n\275\347\033H=\226<X\274\332J\231=<\250\033=\225\315\206=\030E\222=\231\363\324<\275\205\366=\373\210\005>6\031\340\275\331(\362<]\253+\276SQ\256\275\252\366\026\276\026\316#\276\n{n\275[\333\316=6\031\340=|\n\274\275-2\313<8\014\020\276\030E\222\275\315X\375\275\340r\t\276\347\033H\275\365\347\240\275SQ\256\275\030E\222=\365\016\236\2746\031\340=9\216c=\243\021\305=\020\325\325=<\250\033=HY\013\276\252\366\026\276\315X\375=\363\341\010\2751\023B>\243\021\305=\253\252*>\'/9>\225\315\206=D\207\337<\331(\362<-2\313\274\215\222\333;<\250\033\275\365\016\236\274\363\341\010\275\276\206\024\275\226<X\274(v\036>]\253+>8\014\020\276<\250\033=\244\261\\\2766\031\340\2751\023B\276l\225R\276\332J\231\2759\216\343=D\207\337<(v\036\276\3073\027\276\352!\\\275\365\347\240\275HY\013>\275\205\366=[\333\316=\3073\027\276\276\206\024\275l\225R>\306\357H>\030E\222=\020\325\325=\'/9\276\026\316#\276\340r\t\276\352!\\\275\226<X\274\332J\231=\030E\222=\231\363\324<<\250\033=\225\315\206\275\n{n\275\347\033H\275\275\205\366=\331(\362<]\253+\276\026\316#\276\n{n\275SQ\256\275\252\366\026>\373\210\005>6\031\340=[\333\316=-2\313<8\014\020\276\340r\t\276\347\033H\275\030E\222\275\315X\375=6\031\340=|\n\274=\365\347\240\275\365\016\236\2746\031\340=\020\325\325=<\250\033=9\216c=\243\021\305\275SQ\256\275\030E\222\275HY\013\276\363\341\010\2751\023B>\'/9>\225\315\206=\243\021\305=\253\252*\276\252\366\026\276\315X\375\275D\207\337<\215\222\333;<\250\033\275\276\206\024\275\226<X\274\365\016\236\274\363\341\010=\331(\362<-2\313<(v\036><\250\033=\244\261\\\276l\225R\276\332J\231\2756\031\340\2751\023B>]\253+>8\014\020>9\216\343=\365\347\240\275HY\013\276\365\347\240\275HY\013>\365\347 >\000\000\000\000\365\347\240\275HY\013\276\3073\027\276\020\325\325=\'/9>\020\325\325=\'/9\276\020\325U\276\000\000\000\000\020\325\325=\'/9>\352!\\\275<\250\033=\225\315\206=<\250\033=\225\315\206\275<\250\233\275\000\000\000\000<\250\033=\225\315\206=\275\205\366=SQ\256\275\252\366\026\276SQ\256\275\252\366\026>SQ.>\000\000\000\000SQ\256\275\252\366\026\276[\333\316=\030E\222\275\315X\375\275\030E\222\275\315X\375=\030E\022>\000\000\000\000\030E\222\275\315X\375\275\365\347\240\2759\216c=\243\021\305=9\216c=\243\021\305\2759\216\343\275\000\000\000\0009\216c=\243\021\305=HY\013\276\243\021\305=\253\252*>\243\021\305=\253\252*\276\243\021E\276\000\000\000\000\243\021\305=\253\252*>D\207\337<\365\016\236\274\363\341\010\275\365\016\236\274\363\341\010=\365\016\036=\000\000\000\000\365\016\236\274\363\341\010\275(v\036>6\031\340\2751\023B\2766\031\340\2751\023B>6\031`>\000\000\000\0006\031\340\2751\023B\2769\216\343=\3073\027\276\352!\\\275\275\205\366=[\333\316=\365\347\240\275HY\013\276D\207\337<(v\036>\3073\027\276\306\357H>\030E\222=\026\316#\276\340r\t\276\020\325\325=\'/9>\276\206\024\275l\225R\276\352!\\\275\030E\222=\231\363\324<\n{n\275\347\033H\275<\250\033=\225\315\206=\226<X\274\332J\231\275\275\205\366=\026\316#\276\n{n\275\373\210\005>6\031\340=SQ\256\275\252\366\026\276\331(\362<]\253+>[\333\316=\340r\t\276\347\033H\2756\031\340=|\n\274=\030E\222\275\315X\375\275-2\313<8\014\020>\365\347\240\275\020\325\325=<\250\033=SQ\256\275\030E\222\2759\216c=\243\021\305=\365\016\236\2746\031\340\275HY\013\276\'/9>\225\315\206=\252\366\026\276\315X\375\275\243\021\305=\253\252*>\363\341\010\2751\023B\276D\207\337<\276\206\024\275\226<X\274\331(\362<-2\313<\365\016\236\274\363\341\010\275\215\222\333;<\250\033=(v\036>l\225R\276\332J\231\275]\253+>8\014\020>6\031\340\2751\023B\276<\250\033=\244\261\\>9\216\343=\3073\027\276\352!\\=\275\205\366=[\333\316\275\365\347\240\275HY\013>D\207\337<(v\036\276\3073\027\276\306\357H>\030E\222\275\026\316#\276\340r\t>\020\325\325=\'/9\276\276\206\024\275l\225R>\352!\\\275\030E\222=\231\363\324\274\n{n\275\347\033H=<\250\033=\225\315\206\275\226<X\274\332J\231=\275\205\366=\026\316#\276\n{n=\373\210\005>6\031\340\275SQ\256\275\252\366\026>\331(\362<]\253+\276[\333\316=\340r\t\276\347\033H=6\031\340=|\n\274\275\030E\222\275\315X\375=-2\313<8\014\020\276\365\347\240\275\020\325\325=<\250\033\275SQ\256\275\030E\222=9\216c=\243\021\305\275\365\016\236\2746\031\340=HY\013\276\'/9>\225\315\206\275\252\366\026\276\315X\375=\243\021\305=\253\252*\276\363\341\010\2751\023B>D\207\337<\276\206\024\275\226<X<\331(\362<-2\313\274\365\016\236\274\363\341\010=\215\222\333;<\250\033\275(v\036>l\225R\276\332J\231=]\253+>8\014\020\2766\031\340\2751\023B><\250\033=\244\261\\\2769\216\343=\365\347\240\275HY\013>\365\347\240\275HY\013\276\365\347 >\000\000\000\000\365\347\240\275HY\013>\3073\027\276\020\325\325=\'/9\276\020\325\325=\'/9>\020\325U\276\000\000\000\000\020\325\325=\'/9\276\352!\\\275<\250\033=\225\315\206\275<\250\033=\225\315\206=<\250\233\275\000\000\000\000<\250\033=\225\315\206\275\275\205\366=SQ\256\275\252\366\026>SQ\256\275\252\366\026\276SQ.>\000\000\000\000SQ\256\275\252\366\026>[\333\316=\030E\222\275\315X\375=\030E\222\275\315X\375\275\030E\022>\000\000\000\000\030E\222\275\315X\375=\365\347\240\2759\216c=\243\021\305\2759\216c=\243\021\305=9\216\343\275\000\000\000\0009\216c=\243\021\305\275HY\013\276\243\021\305=\253\252*\276\243\021\305=\253\252*>\243\021E\276\000\000\000\000\243\021\305=\253\252*\276D\207\337<\365\016\236\274\363\341\010=\365\016\236\274\363\341\010\275\365\016\036=\000\000\000\000\365\016\236\274\363\341\010=(v\036>6\031\340\2751\023B>6\031\340\2751\023B\2766\031`>\000\000\000\0006\031\340\2751\023B>9\216\343=D\207\337<(v\036>\3073\027\276\352!\\=\365\347\240\275HY\013\276\275\205\366=[\333\316\275\3073\027\276\276\206\024\275l\225R\276\306\357H>\030E\222\275\020\325\325=\'/9>\026\316#\276\340r\t>\352!\\\275\226<X\274\332J\231\275\030E\222=\231\363\324\274<\250\033=\225\315\206=\n{n\275\347\033H=\275\205\366=\331(\362<]\253+>\026\316#\276\n{n=SQ\256\275\252\366\026\276\373\210\005>6\031\340\275[\333\316=-2\313<8\014\020>\340r\t\276\347\033H=\030E\222\275\315X\375\2756\031\340=|\n\274\275\365\347\240\275\365\016\236\2746\031\340\275\020\325\325=<\250\033\2759\216c=\243\021\305=SQ\256\275\030E\222=HY\013\276\363\341\010\2751\023B\276\'/9>\225\315\206\275\243\021\305=\253\252*>\252\366\026\276\315X\375=D\207\337<\215\222\333;<\250\033=\276\206\024\275\226<X<\365\016\236\274\363\341\010\275\331(\362<-2\313\274(v\036><\250\033=\244\261\\>l\225R\276\332J\231=6\031\340\2751\023B\276]\253+>8\014\020\2769\216\343=\275\205\366=[\333\316=D\207\337<(v\036>\365\347\240\275HY\013>\3073\027\276\352!\\=\3073\027\276\026\316#\276\340r\t\276\276\206\024\275l\225R\276\020\325\325=\'/9\276\306\357H>\030E\222\275\352!\\\275\n{n\275\347\033H\275\226<X\274\332J\231\275<\250\033=\225\315\206\275\030E\222=\231\363\324\274\275\205\366=\373\210\005>6\031\340=\331(\362<]\253+>SQ\256\275\252\366\026>\026\316#\276\n{n=[\333\316=6\031\340=|\n\274=-2\313<8\014\020>\030E\222\275\315X\375=\340r\t\276\347\033H=\365\347\240\275SQ\256\275\030E\222\275\365\016\236\2746\031\340\2759\216c=\243\021\305\275\020\325\325=<\250\033\275HY\013\276\252\366\026\276\315X\375\275\363\341\010\2751\023B\276\243\021\305=\253\252*\276\'/9>\225\315\206\275D\207\337<\331(\362<-2\313<\215\222\333;<\250\033=\365\016\236\274\363\341\010=\276\206\024\275\226<X<(v\036>]\253+>8\014\020><\250\033=\244\261\\>6\031\340\2751\023B>l\225R\276\332J\231=9\216\343=\365\347 >\000\000\000\000\365\347 >\000\000\000\000\365\347 >\000\000\000\000\365\347 >\000\000\000\000\3073\027\276\020\325U\276\000\000\000\000\020\325U\276\000\000\000\000\020\325U\276\000\000\000\000\020\325U\276\000\000\000\000\352!\\=<\250\233=\000\000\000\000<\250\233=\000\000\000\000<\250\233=\000\000\000\000<\250\233=\000\000\000\000\275\205\366=SQ.>\000\000\000\000SQ.>\000\000\000\000SQ.>\000\000\000\000SQ.>\000\000\000\000[\333\316\275\030E\022\276\000\000\000\000\030E\022\276\000\000\000\000\030E\022\276\000\000\000\000\030E\022\276\000\000\000\000\365\347\240\2759\216\343\275\000\000\000\0009\216\343\275\000\000\000\0009\216\343\275\000\000\000\0009\216\343\275\000\000\000\000HY\013>\243\021E>\000\000\000\000\243\021E>\000\000\000\000\243\021E>\000\000\000\000\243\021E>\000\000\000\000D\207\337<\365\016\036=\000\000\000\000\365\016\036=\000\000\000\000\365\016\036=\000\000\000\000\365\016\036=\000\000\000\000(v\036\2766\031`\276\000\000\000\0006\031`\276\000\000\000\0006\031`\276\000\000\000\0006\031`\276\000\000\000\0009\216\343=\275\205\366=[\333\316\275D\207\337<(v\036\276\365\347\240\275HY\013\276\3073\027\276\352!\\\275\3073\027\276\026\316#\276\340r\t>\276\206\024\275l\225R>\020\325\325=\'/9>\306\357H>\030E\222=\352!\\=\n{n=\347\033H\275\226<X<\332J\231\275<\250\033\275\225\315\206\275\030E\222\275\231\363\324\274\275\205\366=\373\210\005>6\031\340\275\331(\362<]\253+\276SQ\256\275\252\366\026\276\026\316#\276\n{n\275[\333\316\2756\031\340\275|\n\274=-2\313\2748\014\020>\030E\222=\315X\375=\340r\t>\347\033H=\365\347\240\275SQ\256\275\030E\222=\365\016\236\2746\031\340=9\216c=\243\021\305=\020\325\325=<\250\033=HY\013>\252\366\026>\315X\375\275\363\341\010=1\023B\276\243\021\305\275\253\252*\276\'/9\276\225\315\206\275D\207\337<\331(\362<-2\313\274\215\222\333;<\250\033\275\365\016\236\274\363\341\010\275\276\206\024\275\226<X\274(v\036\276]\253+\2768\014\020><\250\033\275\244\261\\>6\031\340=1\023B>l\225R>\332J\231=9\216\343=D\207\337<(v\036\276\3073\027\276\352!\\\275\365\347\240\275HY\013>\275\205\366=[\333\316=\3073\027\276\276\206\024\275l\225R>\306\357H>\030E\222=\020\325\325=\'/9\276\026\316#\276\340r\t\276\352!\\=\226<X<\332J\231\275\030E\222\275\231\363\324\274<\250\033\275\225\315\206=\n{n=\347\033H=\275\205\366=\331(\362<]\253+\276\026\316#\276\n{n\275SQ\256\275\252\366\026>\373\210\005>6\031\340=[\333\316\275-2\313\2748\014\020>\340r\t>\347\033H=\030E\222=\315X\375\2756\031\340\275|\n\274\275\365\347\240\275\365\016\236\2746\031\340=\020\325\325=<\250\033=9\216c=\243\021\305\275SQ\256\275\030E\222\275HY\013>\363\341\010=1\023B\276\'/9\276\225\315\206\275\243\021\305\275\253\252*>\252\366\026>\315X\375=D\207\337<\215\222\333;<\250\033\275\276\206\024\275\226<X\274\365\016\236\274\363\341\010=\331(\362<-2\313<(v\036\276<\250\033\275\244\261\\>l\225R>\332J\231=6\031\340=1\023B\276]\253+\2768\014\020\2769\216\343=\365\347\240\275HY\013\276\365\347\240\275HY\013>\365\347 >\000\000\000\000\365\347\240\275HY\013\276\3073\027\276\020\325\325=\'/9>\020\325\325=\'/9\276\020\325U\276\000\000\000\000\020\325\325=\'/9>\352!\\=<\250\033\275\225\315\206\275<\250\033\275\225\315\206=<\250\233=\000\000\000\000<\250\033\275\225\315\206\275\275\205\366=SQ\256\275\252\366\026\276SQ\256\275\252\366\026>SQ.>\000\000\000\000SQ\256\275\252\366\026\276[\333\316\275\030E\222=\315X\375=\030E\222=\315X\375\275\030E\022\276\000\000\000\000\030E\222=\315X\375=\365\347\240\2759\216c=\243\021\305=9\216c=\243\021\305\2759\216\343\275\000\000\000\0009\216c=\243\021\305=HY\013>\243\021\305\275\253\252*\276\243\021\305\275\253\252*>\243\021E>\000\000\000\000\243\021\305\275\253\252*\276D\207\337<\365\016\236\274\363\341\010\275\365\016\236\274\363\341\010=\365\016\036=\000\000\000\000\365\016\236\274\363\341\010\275(v\036\2766\031\340=1\023B>6\031\340=1\023B\2766\031`\276\000\000\000\0006\031\340=1\023B>9\216\343=\3073\027\276\352!\\\275\275\205\366=[\333\316=\365\347\240\275HY\013\276D\207\337<(v\036>\3073\027\276\306\357H>\030E\222=\026\316#\276\340r\t\276\020\325\325=\'/9>\276\206\024\275l\225R\276\352!\\=\030E\222\275\231\363\324\274\n{n=\347\033H=<\250\033\275\225\315\206\275\226<X<\332J\231=\275\205\366=\026\316#\276\n{n\275\373\210\005>6\031\340=SQ\256\275\252\366\026\276\331(\362<]\253+>[\333\316\275\340r\t>\347\033H=6\031\340\275|\n\274\275\030E\222=\315X\375=-2\313\2748\014\020\276\365\347\240\275\020\325\325=<\250\033=SQ\256\275\030E\222\2759\216c=\243\021\305=\365\016\236\2746\031\340\275HY\013>\'/9\276\225\315\206\275\252\366\026>\315X\375=\243\021\305\275\253\252*\276\363\341\010=1\023B>D\207\337<\276\206\024\275\226<X\274\331(\362<-2\313<\365\016\236\274\363\341\010\275\215\222\333;<\250\033=(v\036\276l\225R>\332J\231=]\253+\2768\014\020\2766\031\340=1\023B><\250\033\275\244\261\\\2769\216\343=\3073\027\276\352!\\=\275\205\366=[\333\316\275\365\347\240\275HY\013>D\207\337<(v\036\276\3073\027\276\306\357H>\030E\222\275\026\316#\276\340r\t>\020\325\325=\'/9\276\276\206\024\275l\225R>\352!\\=\030E\222\275\231\363\324<\n{n=\347\033H\275<\250\033\275\225\315\206=\226<X<\332J\231\275\275\205\366=\026\316#\276\n{n=\373\210\005>6\031\340\275SQ\256\275\252\366\026>\331(\362<]\253+\276[\333\316\275\340r\t>\347\033H\2756\031\340\275|\n\274=\030E\222=\315X\375\275-2\313\2748\014\020>\365\347\240\275\020\325\325=<\250\033\275SQ\256\275\030E\222=9\216c=\243\021\305\275\365\016\236\2746\031\340=HY\013>\'/9\276\225\315\206=\252\366\026>\315X\375\275\243\021\305\275\253\252*>\363\341\010=1\023B\276D\207\337<\276\206\024\275\226<X<\331(\362<-2\313\274\365\016\236\274\363\341\010=\215\222\333;<\250\033\275(v\036\276l\225R>\332J\231\275]\253+\2768\014\020>6\031\340=1\023B\276<\250\033\275\244\261\\>9\216\343=\365\347\240\275HY\013>\365\347\240\275HY\013\276\365\347 >\000\000\000\000\365\347\240\275HY\013>\3073\027\276\020\325\325=\'/9\276\020\325\325=\'/9>\020\325U\276\000\000\000\000\020\325\325=\'/9\276\352!\\=<\250\033\275\225\315\206=<\250\033\275\225\315\206\275<\250\233=\000\000\000\000<\250\033\275\225\315\206=\275\205\366=SQ\256\275\252\366\026>SQ\256\275\252\366\026\276SQ.>\000\000\000\000SQ\256\275\252\366\026>[\333\316\275\030E\222=\315X\375\275\030E\222=\315X\375=\030E\022\276\000\000\000\000\030E\222=\315X\375\275\365\347\240\2759\216c=\243\021\305\2759\216c=\243\021\305=9\216\343\275\000\000\000\0009\216c=\243\021\305\275HY\013>\243\021\305\275\253\252*>\243\021\305\275\253\252*\276\243\021E>\000\000\000\000\243\021\305\275\253\252*>D\207\337<\365\016\236\274\363\341\010=\365\016\236\274\363\341\010\275\365\016\036=\000\000\000\000\365\016\236\274\363\341\010=(v\036\2766\031\340=1\023B\2766\031\340=1\023B>6\031`\276\000\000\000\0006\031\340=1\023B\2769\216\343=D\207\337<(v\036>\3073\027\276\352!\\=\365\347\240\275HY\013\276\275\205\366=[\333\316\275\3073\027\276\276\206\024\275l\225R\276\306\357H>\030E\222\275\020\325\325=\'/9>\026\316#\276\340r\t>\352!\\=\226<X<\332J\231=\030E\222\275\231\363\324<<\250\033\275\225\315\206\275\n{n=\347\033H\275\275\205\366=\331(\362<]\253+>\026\316#\276\n{n=SQ\256\275\252\366\026\276\373\210\005>6\031\340\275[\333\316\275-2\313\2748\014\020\276\340r\t>\347\033H\275\030E\222=\315X\375=6\031\340\275|\n\274=\365\347\240\275\365\016\236\2746\031\340\275\020\325\325=<\250\033\2759\216c=\243\021\305=SQ\256\275\030E\222=HY\013>\363\341\010=1\023B>\'/9\276\225\315\206=\243\021\305\275\253\252*\276\252\366\026>\315X\375\275D\207\337<\215\222\333;<\250\033=\276\206\024\275\226<X<\365\016\236\274\363\341\010\275\331(\362<-2\313\274(v\036\276<\250\033\275\244\261\\\276l\225R>\332J\231\2756\031\340=1\023B>]\253+\2768\014\020>9\216\343=\275\205\366=[\333\316=D\207\337<(v\036>\365\347\240\275HY\013>\3073\027\276\352!\\=\3073\027\276\026\316#\276\340r\t\276\276\206\024\275l\225R\276\020\325\325=\'/9\276\306\357H>\030E\222\275\352!\\=\n{n=\347\033H=\226<X<\332J\231=<\250\033\275\225\315\206=\030E\222\275\231\363\324<\275\205\366=\373\210\005>6\031\340=\331(\362<]\253+>SQ\256\275\252\366\026>\026\316#\276\n{n=[\333\316\2756\031\340\275|\n\274\275-2\313\2748\014\020\276\030E\222=\315X\375\275\340r\t>\347\033H\275\365\347\240\275SQ\256\275\030E\222\275\365\016\236\2746\031\340\2759\216c=\243\021\305\275\020\325\325=<\250\033\275HY\013>\252\366\026>\315X\375=\363\341\010=1\023B>\243\021\305\275\253\252*>\'/9\276\225\315\206=D\207\337<\331(\362<-2\313<\215\222\333;<\250\033=\365\016\236\274\363\341\010=\276\206\024\275\226<X<(v\036\276]\253+\2768\014\020\276<\250\033\275\244\261\\\2766\031\340=1\023B\276l\225R>\332J\231\2759\216\343=\365\347 >\000\000\000\000\365\347 >\000\000\000\000\365\347 >\000\000\000\000\365\347 >\000\000\000\000\365\347\240\2759\216\343\275\000\000\000\0009\216\343\275\000\000\000\0009\216\343\275\000\000\000\0009\216\343\275\000\000\000\000HY\013>\243\021E>\000\000\000\000\243\021E>\000\000\000\000\243\021E>\000\000\000\000\243\021E>\000\000\000\000\365\347\240\2759\216\343\275\000\000\000\0009\216\343\275\000\000\000\0009\216\343\275\000\000\000\0009\216\343\275\000\000\000\000HY\013\276\243\021E\276\000\000\000\000\243\021E\276\000\000\000\000\243\021E\276\000\000\000\000\243\021E\276\000\000\000\000\365\347 >9\216c>\000\000\000\0009\216c>\000\000\000\0009\216c>\000\000\000\0009\216c>\000\000\000\000\000\000\000\000\000\000\000\000\000\000\000\000\000\000\000\000\000\000\000\000\000\000\000\000\000\000\000\000\000\000\000\000\000\000\000\000\365\347\240\2759\216\343\275\000\000\000\0009\216\343\275\000\000\000\0009\216\343\275\000\000\000\0009\216\343\275\000\000\000\000HY\013>\243\021E>\000\000\000\000\243\021E>\000\000\000\000\243\021E>\000\000\000\000\243\021E>\000\000\000\0009\216\343=\275\205\366=[\333\316\275D\207\337<(v\036\276\365\347\240\275HY\013\276\3073\027\276\352!\\\275\365\347\240\275SQ\256\275\030E\222=\365\016\236\2746\031\340=9\216c=\243\021\305=\020\325\325=<\250\033=HY\013>\252\366\026>\315X\375\275\363\341\010=1\023B\276\243\021\305\275\253\252*\276\'/9\276\225\315\206\275\365\347\240\275SQ\256\275\030E\222=\365\016\236\2746\031\340=9\216c=\243\021\305=\020\325\325=<\250\033=HY\013\276\252\366\026\276\315X\375=\363\341\010\2751\023B>\243\021\305=\253\252*>\'/9>\225\315\206=\365\347 >SQ.>\030E\022\276\365\016\036=6\031`\2769\216\343\275\243\021E\276\020\325U\276<\250\233\275\000\000\000\000\000\000\000\000\000\000\000\000\000\000\000\000\000\000\000\000\000\000\000\000\000\000\000\000\000\000\000\000\000\000\000\000\365\347\240\275SQ\256\275\030E\222=\365\016\236\2746\031\340=9\216c=\243\021\305=\020\325\325=<\250\033=HY\013>\252\366\026>\315X\375\275\363\341\010=1\023B\276\243\021\305\275\253\252*\276\'/9\276\225\315\206\2759\216\343=D\207\337<(v\036\276\3073\027\276\352!\\\275\365\347\240\275HY\013>\275\205\366=[\333\316=\365\347\240\275\365\016\236\2746\031\340=\020\325\325=<\250\033=9\216c=\243\021\305\275SQ\256\275\030E\222\275HY\013>\363\341\010=1\023B\276\'/9\276\225\315\206\275\243\021\305\275\253\252*>\252\366\026>\315X\375=\365\347\240\275\365\016\236\2746\031\340=\020\325\325=<\250\033=9\216c=\243\021\305\275SQ\256\275\030E\222\275HY\013\276\363\341\010\2751\023B>\'/9>\225\315\206=\243\021\305=\253\252*\276\252\366\026\276\315X\375\275\365\347 >\365\016\036=6\031`\276\020\325U\276<\250\233\2759\216\343\275\243\021E>SQ.>\030E\022>\000\000\000\000\000\000\000\000\000\000\000\000\000\000\000\000\000\000\000\000\000\000\000\000\000\000\000\000\000\000\000\000\000\000\000\000\365\347\240\275\365\016\236\2746\031\340=\020\325\325=<\250\033=9\216c=\243\021\305\275SQ\256\275\030E\222\275HY\013>\363\341\010=1\023B\276\'/9\276\225\315\206\275\243\021\305\275\253\252*>\252\366\026>\315X\375=9\216\343=\365\347\240\275HY\013\276\365\347\240\275HY\013>\365\347 >\000\000\000\000\365\347\240\275HY\013\276\365\347\240\2759\216c=\243\021\305=9\216c=\243\021\305\2759\216\343\275\000\000\000\0009\216c=\243\021\305=HY\013>\243\021\305\275\253\252*\276\243\021\305\275\253\252*>\243\021E>\000\000\000\000\243\021\305\275\253\252*\276\365\347\240\2759\216c=\243\021\305=9\216c=\243\021\305\2759\216\343\275\000\000\000\0009\216c=\243\021\305=HY\013\276\243\021\305=\253\252*>\243\021\305=\253\252*\276\243\021E\276\000\000\000\000\243\021\305=\253\252*>\365\347 >9\216\343\275\243\021E\2769\216\343\275\243\021E>9\216c>\000\000\000\0009\216\343\275\243\021E\276\000\000\000\000\000\000\000\000\000\000\000\000\000\000\000\000\000\000\000\000\000\000\000\000\000\000\000\000\000\000\000\000\000\000\000\000\365\347\240\2759\216c=\243\021\305=9\216c=\243\021\305\2759\216\343\275\000\000\000\0009\216c=\243\021\305=HY\013>\243\021\305\275\253\252*\276\243\021\305\275\253\252*>\243\021E>\000\000\000\000\243\021\305\275\253\252*\2769\216\343=\3073\027\276\352!\\\275\275\205\366=[\333\316=\365\347\240\275HY\013\276D\207\337<(v\036>\365\347\240\275\020\325\325=<\250\033=SQ\256\275\030E\222\2759\216c=\243\021\305=\365\016\236\2746\031\340\275HY\013>\'/9\276\225\315\206\275\252\366\026>\315X\375=\243\021\305\275\253\252*\276\363\341\010=1\023B>\365\347\240\275\020\325\325=<\250\033=SQ\256\275\030E\222\2759\216c=\243\021\305=\365\016\236\2746\031\340\275HY\013\276\'/9>\225\315\206=\252\366\026\276\315X\375\275\243\021\305=\253\252*>\363\341\010\2751\023B\276\365\347 >\020\325U\276<\250\233\275SQ.>\030E\022>9\216\343\275\243\021E\276\365\016\036=6\031`>\000\000\000\000\000\000\000\000\000\000\000\000\000\000\000\000\000\000\000\000\000\000\000\000\000\000\000\000\000\000\000\000\000\000\000\000\365\347\240\275\020\325\325=<\250\033=SQ\256\275\030E\222\2759\216c=\243\021\305=\365\016\236\2746\031\340\275HY\013>\'/9\276\225\315\206\275\252\366\026>\315X\375=\243\021\305\275\253\252*\276\363\341\010=1\023B>9\216\343=\3073\027\276\352!\\=\275\205\366=[\333\316\275\365\347\240\275HY\013>D\207\337<(v\036\276\365\347\240\275\020\325\325=<\250\033\275SQ\256\275\030E\222=9\216c=\243\021\305\275\365\016\236\2746\031\340=HY\013>\'/9\276\225\315\206=\252\366\026>\315X\375\275\243\021\305\275\253\252*>\363\341\010=1\023B\276\365\347\240\275\020\325\325=<\250\033\275SQ\256\275\030E\222=9\216c=\243\021\305\275\365\016\236\2746\031\340=HY\013\276\'/9>\225\315\206\275\252\366\026\276\315X\375=\243\021\305=\253\252*\276\363\341\010\2751\023B>\365\347 >\020\325U\276<\250\233=SQ.>\030E\022\2769\216\343\275\243\021E>\365\016\036=6\031`\276\000\000\000\000\000\000\000\000\000\000\000\000\000\000\000\000\000\000\000\000\000\000\000\000\000\000\000\000\000\000\000\000\000\000\000\000\365\347\240\275\020\325\325=<\250\033\275SQ\256\275\030E\222=9\216c=\243\021\305\275\365\016\236\2746\031\340=HY\013>\'/9\276\225\315\206=\252\366\026>\315X\375\275\243\021\305\275\253\252*>\363\341\010=1\023B\2769\216\343=\365\347\240\275HY\013>\365\347\240\275HY\013\276\365\347 >\000\000\000\000\365\347\240\275HY\013>\365\347\240\2759\216c=\243\021\305\2759\216c=\243\021\305=9\216\343\275\000\000\000\0009\216c=\243\021\305\275HY\013>\243\021\305\275\253\252*>\243\021\305\275\253\252*\276\243\021E>\000\000\000\000\243\021\305\275\253\252*>\365\347\240\2759\216c=\243\021\305\2759\216c=\243\021\305=9\216\343\275\000\000\000\0009\216c=\243\021\305\275HY\013\276\243\021\305=\253\252*\276\243\021\305=\253\252*>\243\021E\276\000\000\000\000\243\021\305=\253\252*\276\365\347 >9\216\343\275\243\021E>9\216\343\275\243\021E\2769\216c>\000\000\000\0009\216\343\275\243\021E>\000\000\000\000\000\000\000\000\000\000\000\000\000\000\000\000\000\000\000\000\000\000\000\000\000\000\000\000\000\000\000\000\000\000\000\000\365\347\240\2759\216c=\243\021\305\2759\216c=\243\021\305=9\216\343\275\000\000\000\0009\216c=\243\021\305\275HY\013>\243\021\305\275\253\252*>\243\021\305\275\253\252*\276\243\021E>\000\000\000\000\243\021\305\275\253\252*>9\216\343=D\207\337<(v\036>\3073\027\276\352!\\=\365\347\240\275HY\013\276\275\205\366=[\333\316\275\365\347\240\275\365\016\236\2746\031\340\275\020\325\325=<\250\033\2759\216c=\243\021\305=SQ\256\275\030E\222=HY\013>\363\341\010=1\023B>\'/9\276\225\315\206=\243\021\305\275\253\252*\276\252\366\026>\315X\375\275\365\347\240\275\365\016\236\2746\031\340\275\020\325\325=<\250\033\2759\216c=\243\021\305=SQ\256\275\030E\222=HY\013\276\363\341\010\2751\023B\276\'/9>\225\315\206\275\243\021\305=\253\252*>\252\366\026\276\315X\375=\365\347 >\365\016\036=6\031`>\020\325U\276<\250\233=9\216\343\275\243\021E\276SQ.>\030E\022\276\000\000\000\000\000\000\000\000\000\000\000\000\000\000\000\000\000\000\000\000\000\000\000\000\000\000\000\000\000\000\000\000\000\000\000\000\365\347\240\275\365\016\236\2746\031\340\275\020\325\325=<\250\033\2759\216c=\243\021\305=SQ\256\275\030E\222=HY\013>\363\341\010=1\023B>\'/9\276\225\315\206=\243\021\305\275\253\252*\276\252\366\026>\315X\375\2759\216\343=\275\205\366=[\333\316=D\207\337<(v\036>\365\347\240\275HY\013>\3073\027\276\352!\\=\365\347\240\275SQ\256\275\030E\222\275\365\016\236\2746\031\340\2759\216c=\243\021\305\275\020\325\325=<\250\033\275HY\013>\252\366\026>\315X\375=\363\341\010=1\023B>\243\021\305\275\253\252*>\'/9\276\225\315\206=\365\347\240\275SQ\256\275\030E\222\275\365\016\236\2746\031\340\2759\216c=\243\021\305\275\020\325\325=<\250\033\275HY\013\276\252\366\026\276\315X\375\275\363\341\010\2751\023B\276\243\021\305=\253\252*\276\'/9>\225\315\206\275\365\347 >SQ.>\030E\022>\365\016\036=6\031`>9\216\343\275\243\021E>\020\325U\276<\250\233=\000\000\000\000\000\000\000\000\000\000\000\000\000\000\000\000\000\000\000\000\000\000\000\000\000\000\000\000\000\000\000\000\000\000\000\000\365\347\240\275SQ\256\275\030E\222\275\365\016\236\2746\031\340\2759\216c=\243\021\305\275\020\325\325=<\250\033\275HY\013>\252\366\026>\315X\375=\363\341\010=1\023B>\243\021\305\275\253\252*>\'/9\276\225\315\206=9\216\343=\365\347 >\000\000\000\000\365\347 >\000\000\000\000\365\347 >\000\000\000\000\365\347 >\000\000\000\000D\207\337<\365\016\036=\000\000\000\000\365\016\036=\000\000\000\000\365\016\036=\000\000\000\000\365\016\036=\000\000\000\000(v\036>6\031`>\000\000\000\0006\031`>\000\000\000\0006\031`>\000\000\000\0006\031`>\000\000\000\000\3073\027\276\020\325U\276\000\000\000\000\020\325U\276\000\000\000\000\020\325U\276\000\000\000\000\020\325U\276\000\000\000\000\352!\\=<\250\233=\000\000\000\000<\250\233=\000\000\000\000<\250\233=\000\000\000\000<\250\233=\000\000\000\000\365\347\240\2759\216\343\275\000\000\000\0009\216\343\275\000\000\000\0009\216\343\275\000\000\000\0009\216\343\275\000\000\000\000HY\013\276\243\021E\276\000\000\000\000\243\021E\276\000\000\000\000\243\021E\276\000\000\000\000\243\021E\276\000\000\000\000\275\205\366=SQ.>\000\000\000\000SQ.>\000\000\000\000SQ.>\000\000\000\000SQ.>\000\000\000\000[\333\316\275\030E\022\276\000\000\000\000\030E\022\276\000\000\000\000\030E\022\276\000\000\000\000\030E\022\276\000\000\000\0009\216\343=\275\205\366=[\333\316\275D\207\337<(v\036\276\365\347\240\275HY\013\276\3073\027\276\352!\\\275D\207\337<\331(\362<-2\313\274\215\222\333;<\250\033\275\365\016\236\274\363\341\010\275\276\206\024\275\226<X\274(v\036>]\253+>8\014\020\276<\250\033=\244\261\\\2766\031\340\2751\023B\276l\225R\276\332J\231\275\3073\027\276\026\316#\276\340r\t>\276\206\024\275l\225R>\020\325\325=\'/9>\306\357H>\030E\222=\352!\\=\n{n=\347\033H\275\226<X<\332J\231\275<\250\033\275\225\315\206\275\030E\222\275\231\363\324\274\365\347\240\275SQ\256\275\030E\222=\365\016\236\2746\031\340=9\216c=\243\021\305=\020\325\325=<\250\033=HY\013\276\252\366\026\276\315X\375=\363\341\010\2751\023B>\243\021\305=\253\252*>\'/9>\225\315\206=\275\205\366=\373\210\005>6\031\340\275\331(\362<]\253+\276SQ\256\275\252\366\026\276\026\316#\276\n{n\275[\333\316\2756\031\340\275|\n\274=-2\313\2748\014\020>\030E\222=\315X\375=\340r\t>\347\033H=9\216\343=D\207\337<(v\036\276\3073\027\276\352!\\\275\365\347\240\275HY\013>\275\205\366=[\333\316=D\207\337<\215\222\333;<\250\033\275\276\206\024\275\226<X\274\365\016\236\274\363\341\010=\331(\362<-2\313<(v\036><\250\033=\244\261\\\276l\225R\276\332J\231\2756\031\340\2751\023B>]\253+>8\014\020>\3073\027\276\276\206\024\275l\225R>\306\357H>\030E\222=\020\325\325=\'/9\276\026\316#\276\340r\t\276\352!\\=\226<X<\332J\231\275\030E\222\275\231\363\324\274<\250\033\275\225\315\206=\n{n=\347\033H=\365\347\240\275\365\016\236\2746\031\340=\020\325\325=<\250\033=9\216c=\243\021\305\275SQ\256\275\030E\222\275HY\013\276\363\341\010\2751\023B>\'/9>\225\315\206=\243\021\305=\253\252*\276\252\366\026\276\315X\375\275\275\205\366=\331(\362<]\253+\276\026\316#\276\n{n\275SQ\256\275\252\366\026>\373\210\005>6\031\340=[\333\316\275-2\313\2748\014\020>\340r\t>\347\033H=\030E\222=\315X\375\2756\031\340\275|\n\274\2759\216\343=\365\347\240\275HY\013\276\365\347\240\275HY\013>\365\347 >\000\000\000\000\365\347\240\275HY\013\276D\207\337<\365\016\236\274\363\341\010\275\365\016\236\274\363\341\010=\365\016\036=\000\000\000\000\365\016\236\274\363\341\010\275(v\036>6\031\340\2751\023B\2766\031\340\2751\023B>6\031`>\000\000\000\0006\031\340\2751\023B\276\3073\027\276\020\325\325=\'/9>\020\325\325=\'/9\276\020\325U\276\000\000\000\000\020\325\325=\'/9>\352!\\=<\250\033\275\225\315\206\275<\250\033\275\225\315\206=<\250\233=\000\000\000\000<\250\033\275\225\315\206\275\365\347\240\2759\216c=\243\021\305=9\216c=\243\021\305\2759\216\343\275\000\000\000\0009\216c=\243\021\305=HY\013\276\243\021\305=\253\252*>\243\021\305=\253\252*\276\243\021E\276\000\000\000\000\243\021\305=\253\252*>\275\205\366=SQ\256\275\252\366\026\276SQ\256\275\252\366\026>SQ.>\000\000\000\000SQ\256\275\252\366\026\276[\333\316\275\030E\222=\315X\375=\030E\222=\315X\375\275\030E\022\276\000\000\000\000\030E\222=\315X\375=9\216\343=\3073\027\276\352!\\\275\275\205\366=[\333\316=\365\347\240\275HY\013\276D\207\337<(v\036>D\207\337<\276\206\024\275\226<X\274\331(\362<-2\313<\365\016\236\274\363\341\010\275\215\222\333;<\250\033=(v\036>l\225R\276\332J\231\275]\253+>8\014\020>6\031\340\2751\023B\276<\250\033=\244\261\\>\3073\027\276\306\357H>\030E\222=\026\316#\276\340r\t\276\020\325\325=\'/9>\276\206\024\275l\225R\276\352!\\=\030E\222\275\231\363\324\274\n{n=\347\033H=<\250\033\275\225\315\206\275\226<X<\332J\231=\365\347\240\275\020\325\325=<\250\033=SQ\256\275\030E\222\2759\216c=\243\021\305=\365\016\236\2746\031\340\275HY\013\276\'/9>\225\315\206=\252\366\026\276\315X\375\275\243\021\305=\253\252*>\363\341\010\2751\023B\276\275\205\366=\026\316#\276\n{n\275\373\210\005>6\031\340=SQ\256\275\252\366\026\276\331(\362<]\253+>[\333\316\275\340r\t>\347\033H=6\031\340\275|\n\274\275\030E\222=\315X\375=-2\313\2748\014\020\2769\216\343=\3073\027\276\352!\\=\275\205\366=[\333\316\275\365\347\240\275HY\013>D\207\337<(v\036\276D\207\337<\276\206\024\275\226<X<\331(\362<-2\313\274\365\016\236\274\363\341\010=\215\222\333;<\250\033\275(v\036>l\225R\276\332J\231=]\253+>8\014\020\2766\031\340\2751\023B><\250\033=\244\261\\\276\3073\027\276\306\357H>\030E\222\275\026\316#\276\340r\t>\020\325\325=\'/9\276\276\206\024\275l\225R>\352!\\=\030E\222\275\231\363\324<\n{n=\347\033H\275<\250\033\275\225\315\206=\226<X<\332J\231\275\365\347\240\275\020\325\325=<\250\033\275SQ\256\275\030E\222=9\216c=\243\021\305\275\365\016\236\2746\031\340=HY\013\276\'/9>\225\315\206\275\252\366\026\276\315X\375=\243\021\305=\253\252*\276\363\341\010\2751\023B>\275\205\366=\026\316#\276\n{n=\373\210\005>6\031\340\275SQ\256\275\252\366\026>\331(\362<]\253+\276[\333\316\275\340r\t>\347\033H\2756\031\340\275|\n\274=\030E\222=\315X\375\275-2\313\2748\014\020>9\216\343=\365\347\240\275HY\013>\365\347\240\275HY\013\276\365\347 >\000\000\000\000\365\347\240\275HY\013>D\207\337<\365\016\236\274\363\341\010=\365\016\236\274\363\341\010\275\365\016\036=\000\000\000\000\365\016\236\274\363\341\010=(v\036>6\031\340\2751\023B>6\031\340\2751\023B\2766\031`>\000\000\000\0006\031\340\2751\023B>\3073\027\276\020\325\325=\'/9\276\020\325\325=\'/9>\020\325U\276\000\000\000\000\020\325\325=\'/9\276\352!\\=<\250\033\275\225\315\206=<\250\033\275\225\315\206\275<\250\233=\000\000\000\000<\250\033\275\225\315\206=\365\347\240\2759\216c=\243\021\305\2759\216c=\243\021\305=9\216\343\275\000\000\000\0009\216c=\243\021\305\275HY\013\276\243\021\305=\253\252*\276\243\021\305=\253\252*>\243\021E\276\000\000\000\000\243\021\305=\253\252*\276\275\205\366=SQ\256\275\252\366\026>SQ\256\275\252\366\026\276SQ.>\000\000\000\000SQ\256\275\252\366\026>[\333\316\275\030E\222=\315X\375\275\030E\222=\315X\375=\030E\022\276\000\000\000\000\030E\222=\315X\375\2759\216\343=D\207\337<(v\036>\3073\027\276\352!\\=\365\347\240\275HY\013\276\275\205\366=[\333\316\275D\207\337<\215\222\333;<\250\033=\276\206\024\275\226<X<\365\016\236\274\363\341\010\275\331(\362<-2\313\274(v\036><\250\033=\244\261\\>l\225R\276\332J\231=6\031\340\2751\023B\276]\253+>8\014\020\276\3073\027\276\276\206\024\275l\225R\276\306\357H>\030E\222\275\020\325\325=\'/9>\026\316#\276\340r\t>\352!\\=\226<X<\332J\231=\030E\222\275\231\363\324<<\250\033\275\225\315\206\275\n{n=\347\033H\275\365\347\240\275\365\016\236\2746\031\340\275\020\325\325=<\250\033\2759\216c=\243\021\305=SQ\256\275\030E\222=HY\013\276\363\341\010\2751\023B\276\'/9>\225\315\206\275\243\021\305=\253\252*>\252\366\026\276\315X\375=\275\205\366=\331(\362<]\253+>\026\316#\276\n{n=SQ\256\275\252\366\026\276\373\210\005>6\031\340\275[\333\316\275-2\313\2748\014\020\276\340r\t>\347\033H\275\030E\222=\315X\375=6\031\340\275|\n\274=9\216\343=\275\205\366=[\333\316=D\207\337<(v\036>\365\347\240\275HY\013>\3073\027\276\352!\\=D\207\337<\331(\362<-2\313<\215\222\333;<\250\033=\365\016\236\274\363\341\010=\276\206\024\275\226<X<(v\036>]\253+>8\014\020><\250\033=\244\261\\>6\031\340\2751\023B>l\225R\276\332J\231=\3073\027\276\026\316#\276\340r\t\276\276\206\024\275l\225R\276\020\325\325=\'/9\276\306\357H>\030E\222\275\352!\\=\n{n=\347\033H=\226<X<\332J\231=<\250\033\275\225\315\206=\030E\222\275\231\363\324<\365\347\240\275SQ\256\275\030E\222\275\365\016\236\2746\031\340\2759\216c=\243\021\305\275\020\325\325=<\250\033\275HY\013\276\252\366\026\276\315X\375\275\363\341\010\2751\023B\276\243\021\305=\253\252*\276\'/9>\225\315\206\275\275\205\366=\373\210\005>6\031\340=\331(\362<]\253+>SQ\256\275\252\366\026>\026\316#\276\n{n=[\333\316\2756\031\340\275|\n\274\275-2\313\2748\014\020\276\030E\222=\315X\375\275\340r\t>\347\033H\2759\216\343=\365\347 >\000\000\000\000\365\347 >\000\000\000\000\365\347 >\000\000\000\000\365\347 >\000\000\000\000\275\205\366=SQ.>\000\000\000\000SQ.>\000\000\000\000SQ.>\000\000\000\000SQ.>\000\000\000\000[\333\316=\030E\022>\000\000\000\000\030E\022>\000\000\000\000\030E\022>\000\000\000\000\030E\022>\000\000\000\000D\207\337<\365\016\036=\000\000\000\000\365\016\036=\000\000\000\000\365\016\036=\000\000\000\000\365\016\036=\000\000\000\000(v\036>6\031`>\000\000\000\0006\031`>\000\000\000\0006\031`>\000\000\000\0006\031`>\000\000\000\000\365\347\240\2759\216\343\275\000\000\000\0009\216\343\275\000\000\000\0009\216\343\275\000\000\000\0009\216\343\275\000\000\000\000HY\013>\243\021E>\000\000\000\000\243\021E>\000\000\000\000\243\021E>\000\000\000\000\243\021E>\000\000\000\000\3073\027\276\020\325U\276\000\000\000\000\020\325U\276\000\000\000\000\020\325U\276\000\000\000\000\020\325U\276\000\000\000\000\352!\\=<\250\233=\000\000\000\000<\250\233=\000\000\000\000<\250\233=\000\000\000\000<\250\233=\000\000\000\0009\216\343=\275\205\366=[\333\316\275D\207\337<(v\036\276\365\347\240\275HY\013\276\3073\027\276\352!\\\275\275\205\366=\373\210\005>6\031\340\275\331(\362<]\253+\276SQ\256\275\252\366\026\276\026\316#\276\n{n\275[\333\316=6\031\340=|\n\274\275-2\313<8\014\020\276\030E\222\275\315X\375\275\340r\t\276\347\033H\275D\207\337<\331(\362<-2\313\274\215\222\333;<\250\033\275\365\016\236\274\363\341\010\275\276\206\024\275\226<X\274(v\036>]\253+>8\014\020\276<\250\033=\244\261\\\2766\031\340\2751\023B\276l\225R\276\332J\231\275\365\347\240\275SQ\256\275\030E\222=\365\016\236\2746\031\340=9\216c=\243\021\305=\020\325\325=<\250\033=HY\013>\252\366\026>\315X\375\275\363\341\010=1\023B\276\243\021\305\275\253\252*\276\'/9\276\225\315\206\275\3073\027\276\026\316#\276\340r\t>\276\206\024\275l\225R>\020\325\325=\'/9>\306\357H>\030E\222=\352!\\=\n{n=\347\033H\275\226<X<\332J\231\275<\250\033\275\225\315\206\275\030E\222\275\231\363\324\2749\216\343=D\207\337<(v\036\276\3073\027\276\352!\\\275\365\347\240\275HY\013>\275\205\366=[\333\316=\275\205\366=\331(\362<]\253+\276\026\316#\276\n{n\275SQ\256\275\252\366\026>\373\210\005>6\031\340=[\333\316=-2\313<8\014\020\276\340r\t\276\347\033H\275\030E\222\275\315X\375=6\031\340=|\n\274=D\207\337<\215\222\333;<\250\033\275\276\206\024\275\226<X\274\365\016\236\274\363\341\010=\331(\362<-2\313<(v\036><\250\033=\244\261\\\276l\225R\276\332J\231\2756\031\340\2751\023B>]\253+>8\014\020>\365\347\240\275\365\016\236\2746\031\340=\020\325\325=<\250\033=9\216c=\243\021\305\275SQ\256\275\030E\222\275HY\013>\363\341\010=1\023B\276\'/9\276\225\315\206\275\243\021\305\275\253\252*>\252\366\026>\315X\375=\3073\027\276\276\206\024\275l\225R>\306\357H>\030E\222=\020\325\325=\'/9\276\026\316#\276\340r\t\276\352!\\=\226<X<\332J\231\275\030E\222\275\231\363\324\274<\250\033\275\225\315\206=\n{n=\347\033H=9\216\343=\365\347\240\275HY\013\276\365\347\240\275HY\013>\365\347 >\000\000\000\000\365\347\240\275HY\013\276\275\205\366=SQ\256\275\252\366\026\276SQ\256\275\252\366\026>SQ.>\000\000\000\000SQ\256\275\252\366\026\276[\333\316=\030E\222\275\315X\375\275\030E\222\275\315X\375=\030E\022>\000\000\000\000\030E\222\275\315X\375\275D\207\337<\365\016\236\274\363\341\010\275\365\016\236\274\363\341\010=\365\016\036=\000\000\000\000\365\016\236\274\363\341\010\275(v\036>6\031\340\2751\023B\2766\031\340\2751\023B>6\031`>\000\000\000\0006\031\340\2751\023B\276\365\347\240\2759\216c=\243\021\305=9\216c=\243\021\305\2759\216\343\275\000\000\000\0009\216c=\243\021\305=HY\013>\243\021\305\275\253\252*\276\243\021\305\275\253\252*>\243\021E>\000\000\000\000\243\021\305\275\253\252*\276\3073\027\276\020\325\325=\'/9>\020\325\325=\'/9\276\020\325U\276\000\000\000\000\020\325\325=\'/9>\352!\\=<\250\033\275\225\315\206\275<\250\033\275\225\315\206=<\250\233=\000\000\000\000<\250\033\275\225\315\206\2759\216\343=\3073\027\276\352!\\\275\275\205\366=[\333\316=\365\347\240\275HY\013\276D\207\337<(v\036>\275\205\366=\026\316#\276\n{n\275\373\210\005>6\031\340=SQ\256\275\252\366\026\276\331(\362<]\253+>[\333\316=\340r\t\276\347\033H\2756\031\340=|\n\274=\030E\222\275\315X\375\275-2\313<8\014\020>D\207\337<\276\206\024\275\226<X\274\331(\362<-2\313<\365\016\236\274\363\341\010\275\215\222\333;<\250\033=(v\036>l\225R\276\332J\231\275]\253+>8\014\020>6\031\340\2751\023B\276<\250\033=\244\261\\>\365\347\240\275\020\325\325=<\250\033=SQ\256\275\030E\222\2759\216c=\243\021\305=\365\016\236\2746\031\340\275HY\013>\'/9\276\225\315\206\275\252\366\026>\315X\375=\243\021\305\275\253\252*\276\363\341\010=1\023B>\3073\027\276\306\357H>\030E\222=\026\316#\276\340r\t\276\020\325\325=\'/9>\276\206\024\275l\225R\276\352!\\=\030E\222\275\231\363\324\274\n{n=\347\033H=<\250\033\275\225\315\206\275\226<X<\332J\231=9\216\343=\3073\027\276\352!\\=\275\205\366=[\333\316\275\365\347\240\275HY\013>D\207\337<(v\036\276\275\205\366=\026\316#\276\n{n=\373\210\005>6\031\340\275SQ\256\275\252\366\026>\331(\362<]\253+\276[\333\316=\340r\t\276\347\033H=6\031\340=|\n\274\275\030E\222\275\315X\375=-2\313<8\014\020\276D\207\337<\276\206\024\275\226<X<\331(\362<-2\313\274\365\016\236\274\363\341\010=\215\222\333;<\250\033\275(v\036>l\225R\276\332J\231=]\253+>8\014\020\2766\031\340\2751\023B><\250\033=\244\261\\\276\365\347\240\275\020\325\325=<\250\033\275SQ\256\275\030E\222=9\216c=\243\021\305\275\365\016\236\2746\031\340=HY\013>\'/9\276\225\315\206=\252\366\026>\315X\375\275\243\021\305\275\253\252*>\363\341\010=1\023B\276\3073\027\276\306\357H>\030E\222\275\026\316#\276\340r\t>\020\325\325=\'/9\276\276\206\024\275l\225R>\352!\\=\030E\222\275\231\363\324<\n{n=\347\033H\275<\250\033\275\225\315\206=\226<X<\332J\231\2759\216\343=\365\347\240\275HY\013>\365\347\240\275HY\013\276\365\347 >\000\000\000\000\365\347\240\275HY\013>\275\205\366=SQ\256\275\252\366\026>SQ\256\275\252\366\026\276SQ.>\000\000\000\000SQ\256\275\252\366\026>[\333\316=\030E\222\275\315X\375=\030E\222\275\315X\375\275\030E\022>\000\000\000\000\030E\222\275\315X\375=D\207\337<\365\016\236\274\363\341\010=\365\016\236\274\363\341\010\275\365\016\036=\000\000\000\000\365\016\236\274\363\341\010=(v\036>6\031\340\2751\023B>6\031\340\2751\023B\2766\031`>\000\000\000\0006\031\340\2751\023B>\365\347\240\2759\216c=\243\021\305\2759\216c=\243\021\305=9\216\343\275\000\000\000\0009\216c=\243\021\305\275HY\013>\243\021\305\275\253\252*>\243\021\305\275\253\252*\276\243\021E>\000\000\000\000\243\021\305\275\253\252*>\3073\027\276\020\325\325=\'/9\276\020\325\325=\'/9>\020\325U\276\000\000\000\000\020\325\325=\'/9\276\352!\\=<\250\033\275\225\315\206=<\250\033\275\225\315\206\275<\250\233=\000\000\000\000<\250\033\275\225\315\206=9\216\343=D\207\337<(v\036>\3073\027\276\352!\\=\365\347\240\275HY\013\276\275\205\366=[\333\316\275\275\205\366=\331(\362<]\253+>\026\316#\276\n{n=SQ\256\275\252\366\026\276\373\210\005>6\031\340\275[\333\316=-2\313<8\014\020>\340r\t\276\347\033H=\030E\222\275\315X\375\2756\031\340=|\n\274\275D\207\337<\215\222\333;<\250\033=\276\206\024\275\226<X<\365\016\236\274\363\341\010\275\331(\362<-2\313\274(v\036><\250\033=\244\261\\>l\225R\276\332J\231=6\031\340\2751\023B\276]\253+>8\014\020\276\365\347\240\275\365\016\236\2746\031\340\275\020\325\325=<\250\033\2759\216c=\243\021\305=SQ\256\275\030E\222=HY\013>\363\341\010=1\023B>\'/9\276\225\315\206=\243\021\305\275\253\252*\276\252\366\026>\315X\375\275\3073\027\276\276\206\024\275l\225R\276\306\357H>\030E\222\275\020\325\325=\'/9>\026\316#\276\340r\t>\352!\\=\226<X<\332J\231=\030E\222\275\231\363\324<<\250\033\275\225\315\206\275\n{n=\347\033H\2759\216\343=\275\205\366=[\333\316=D\207\337<(v\036>\365\347\240\275HY\013>\3073\027\276\352!\\=\275\205\366=\373\210\005>6\031\340=\331(\362<]\253+>SQ\256\275\252\366\026>\026\316#\276\n{n=[\333\316=6\031\340=|\n\274=-2\313<8\014\020>\030E\222\275\315X\375=\340r\t\276\347\033H=D\207\337<\331(\362<-2\313<\215\222\333;<\250\033=\365\016\236\274\363\341\010=\276\206\024\275\226<X<(v\036>]\253+>8\014\020><\250\033=\244\261\\>6\031\340\2751\023B>l\225R\276\332J\231=\365\347\240\275SQ\256\275\030E\222\275\365\016\236\2746\031\340\2759\216c=\243\021\305\275\020\325\325=<\250\033\275HY\013>\252\366\026>\315X\375=\363\341\010=1\023B>\243\021\305\275\253\252*>\'/9\276\225\315\206=\3073\027\276\026\316#\276\340r\t\276\276\206\024\275l\225R\276\020\325\325=\'/9\276\306\357H>\030E\222\275\352!\\=\n{n=\347\033H=\226<X<\332J\231=<\250\033\275\225\315\206=\030E\222\275\231\363\324<"
      }
    }
  }
}
node {
  name: "analysis_transform/layer_0/kernel_rdft/Initializer/MatMul"
  op: "MatMul"
  input: "analysis_transform/layer_0/kernel_rdft/Initializer/irdft_9x9"
  input: "analysis_transform/layer_0/kernel_rdft/Initializer/Reshape"
  attr {
    key: "T"
    value {
      type: DT_FLOAT
    }
  }
  attr {
    key: "_class"
    value {
      list {
        s: "loc:@analysis_transform/layer_0/kernel_rdft"
      }
    }
  }
  attr {
    key: "_output_shapes"
    value {
      list {
        shape {
          dim {
            size: 81
          }
          dim {
            size: 384
          }
        }
      }
    }
  }
  attr {
    key: "transpose_a"
    value {
      b: true
    }
  }
  attr {
    key: "transpose_b"
    value {
      b: false
    }
  }
}
node {
  name: "analysis_transform/layer_0/kernel_rdft"
  op: "VarHandleOp"
  attr {
    key: "_class"
    value {
      list {
        s: "loc:@analysis_transform/layer_0/kernel_rdft"
      }
    }
  }
  attr {
    key: "_output_shapes"
    value {
      list {
        shape {
        }
      }
    }
  }
  attr {
    key: "container"
    value {
      s: ""
    }
  }
  attr {
    key: "dtype"
    value {
      type: DT_FLOAT
    }
  }
  attr {
    key: "shape"
    value {
      shape {
        dim {
          size: 81
        }
        dim {
          size: 384
        }
      }
    }
  }
  attr {
    key: "shared_name"
    value {
      s: "analysis_transform/layer_0/kernel_rdft"
    }
  }
}
node {
  name: "analysis_transform/layer_0/kernel_rdft/IsInitialized/VarIsInitializedOp"
  op: "VarIsInitializedOp"
  input: "analysis_transform/layer_0/kernel_rdft"
  attr {
    key: "_output_shapes"
    value {
      list {
        shape {
        }
      }
    }
  }
}
node {
  name: "analysis_transform/layer_0/kernel_rdft/Assign"
  op: "AssignVariableOp"
  input: "analysis_transform/layer_0/kernel_rdft"
  input: "analysis_transform/layer_0/kernel_rdft/Initializer/MatMul"
  attr {
    key: "dtype"
    value {
      type: DT_FLOAT
    }
  }
}
node {
  name: "analysis_transform/layer_0/kernel_rdft/Read/ReadVariableOp"
  op: "ReadVariableOp"
  input: "analysis_transform/layer_0/kernel_rdft"
  attr {
    key: "_output_shapes"
    value {
      list {
        shape {
          dim {
            size: 81
          }
          dim {
            size: 384
          }
        }
      }
    }
  }
  attr {
    key: "dtype"
    value {
      type: DT_FLOAT
    }
  }
}
node {
  name: "analysis_transform/layer_0/irdft_9x9"
  op: "Const"
  attr {
    key: "_output_shapes"
    value {
      list {
        shape {
          dim {
            size: 81
          }
          dim {
            size: 81
          }
        }
      }
    }
  }
  attr {
    key: "dtype"
    value {
      type: DT_FLOAT
    }
  }
  attr {
    key: "value"
    value {
      tensor {
        dtype: DT_FLOAT
        tensor_shape {
          dim {
            size: 81
          }
          dim {
            size: 81
          }
        }
